{
  "version": "1.0",
  "truncation": null,
  "padding": null,
  "added_tokens": [
    {
      "id": 0,
      "content": "<PAD>",
      "single_word": false,
      "lstrip": false,
      "rstrip": false,
      "normalized": false,
      "special": true
    },
    {
      "id": 1,
      "content": "<UNK>",
      "single_word": false,
      "lstrip": false,
      "rstrip": false,
      "normalized": false,
      "special": true
    },
    {
      "id": 2,
      "content": "<SOS>",
      "single_word": false,
      "lstrip": false,
      "rstrip": false,
      "normalized": false,
      "special": true
    },
    {
      "id": 3,
      "content": "<EOS>",
      "single_word": false,
      "lstrip": false,
      "rstrip": false,
      "normalized": false,
      "special": true
    },
    {
      "id": 4,
      "content": "<SOT>",
      "single_word": false,
      "lstrip": false,
      "rstrip": false,
      "normalized": false,
      "special": true
    },
    {
      "id": 5,
      "content": "<EOT>",
      "single_word": false,
      "lstrip": false,
      "rstrip": false,
      "normalized": false,
      "special": true
    },
    {
      "id": 6,
      "content": "<SUBJ>",
      "single_word": false,
      "lstrip": false,
      "rstrip": false,
      "normalized": false,
      "special": true
    },
    {
      "id": 7,
      "content": "<PRED>",
      "single_word": false,
      "lstrip": false,
      "rstrip": false,
      "normalized": false,
      "special": true
    },
    {
      "id": 8,
      "content": "<OBJ>",
      "single_word": false,
      "lstrip": false,
      "rstrip": false,
      "normalized": false,
      "special": true
    },
    {
      "id": 9,
      "content": "<Text2RDF>",
      "single_word": false,
      "lstrip": false,
      "rstrip": false,
      "normalized": false,
      "special": true
    },
    {
      "id": 10,
      "content": "<RDF2Text>",
      "single_word": false,
      "lstrip": false,
      "rstrip": false,
      "normalized": false,
      "special": true
    },
    {
      "id": 11,
      "content": "<CONTINUERDF>",
      "single_word": false,
      "lstrip": false,
      "rstrip": false,
      "normalized": false,
      "special": true
    },
    {
      "id": 12,
      "content": "<MASK>",
      "single_word": false,
      "lstrip": false,
      "rstrip": false,
      "normalized": false,
      "special": true
    }
  ],
  "normalizer": null,
  "pre_tokenizer": {
    "type": "Whitespace"
  },
  "post_processor": {
    "type": "TemplateProcessing",
    "single": [
      {
        "Sequence": {
          "id": "A",
          "type_id": 0
        }
      }
    ],
    "pair": [
      {
        "Sequence": {
          "id": "A",
          "type_id": 0
        }
      },
      {
        "Sequence": {
          "id": "B",
          "type_id": 0
        }
      }
    ],
    "special_tokens": {
      "<CONTINUERDF>": {
        "id": "<CONTINUERDF>",
        "ids": [
          11
        ],
        "tokens": [
          "<CONTINUERDF>"
        ]
      },
      "<EOS>": {
        "id": "<EOS>",
        "ids": [
          3
        ],
        "tokens": [
          "<EOS>"
        ]
      },
      "<EOT>": {
        "id": "<EOT>",
        "ids": [
          5
        ],
        "tokens": [
          "<EOT>"
        ]
      },
      "<MASK>": {
        "id": "<MASK>",
        "ids": [
          12
        ],
        "tokens": [
          "<MASK>"
        ]
      },
      "<OBJ>": {
        "id": "<OBJ>",
        "ids": [
          8
        ],
        "tokens": [
          "<OBJ>"
        ]
      },
      "<PAD>": {
        "id": "<PAD>",
        "ids": [
          0
        ],
        "tokens": [
          "<PAD>"
        ]
      },
      "<PRED>": {
        "id": "<PRED>",
        "ids": [
          7
        ],
        "tokens": [
          "<PRED>"
        ]
      },
      "<RDF2Text>": {
        "id": "<RDF2Text>",
        "ids": [
          10
        ],
        "tokens": [
          "<RDF2Text>"
        ]
      },
      "<SOS>": {
        "id": "<SOS>",
        "ids": [
          2
        ],
        "tokens": [
          "<SOS>"
        ]
      },
      "<SOT>": {
        "id": "<SOT>",
        "ids": [
          4
        ],
        "tokens": [
          "<SOT>"
        ]
      },
      "<SUBJ>": {
        "id": "<SUBJ>",
        "ids": [
          6
        ],
        "tokens": [
          "<SUBJ>"
        ]
      },
      "<Text2RDF>": {
        "id": "<Text2RDF>",
        "ids": [
          9
        ],
        "tokens": [
          "<Text2RDF>"
        ]
      },
      "<UNK>": {
        "id": "<UNK>",
        "ids": [
          1
        ],
        "tokens": [
          "<UNK>"
        ]
      }
    }
  },
  "decoder": null,
  "model": {
    "type": "BPE",
    "dropout": null,
    "unk_token": "<UNK>",
    "continuing_subword_prefix": null,
    "end_of_word_suffix": null,
    "fuse_unk": false,
    "byte_fallback": false,
    "ignore_merges": false,
    "vocab": {
      "<PAD>": 0,
      "<UNK>": 1,
      "<SOS>": 2,
      "<EOS>": 3,
      "<SOT>": 4,
      "<EOT>": 5,
      "<SUBJ>": 6,
      "<PRED>": 7,
      "<OBJ>": 8,
      "<Text2RDF>": 9,
      "<RDF2Text>": 10,
      "<CONTINUERDF>": 11,
      "<MASK>": 12,
      "!": 13,
      "\"": 14,
      "$": 15,
      "%": 16,
      "&": 17,
      "'": 18,
      "(": 19,
      ")": 20,
      "+": 21,
      ",": 22,
      "-": 23,
      ".": 24,
      "/": 25,
      "0": 26,
      "1": 27,
      "2": 28,
      "3": 29,
      "4": 30,
      "5": 31,
      "6": 32,
      "7": 33,
      "8": 34,
      "9": 35,
      ":": 36,
      ";": 37,
      "<": 38,
      ">": 39,
      "?": 40,
      "A": 41,
      "B": 42,
      "C": 43,
      "D": 44,
      "E": 45,
      "F": 46,
      "G": 47,
      "H": 48,
      "I": 49,
      "J": 50,
      "K": 51,
      "L": 52,
      "M": 53,
      "N": 54,
      "O": 55,
      "P": 56,
      "Q": 57,
      "R": 58,
      "S": 59,
      "T": 60,
      "U": 61,
      "V": 62,
      "W": 63,
      "X": 64,
      "Y": 65,
      "Z": 66,
      "_": 67,
      "a": 68,
      "b": 69,
      "c": 70,
      "d": 71,
      "e": 72,
      "f": 73,
      "g": 74,
      "h": 75,
      "i": 76,
      "j": 77,
      "k": 78,
      "l": 79,
      "m": 80,
      "n": 81,
      "o": 82,
      "p": 83,
      "q": 84,
      "r": 85,
      "s": 86,
      "t": 87,
      "u": 88,
      "v": 89,
      "w": 90,
      "x": 91,
      "y": 92,
      "z": 93,
      "Á": 94,
      "É": 95,
      "Ó": 96,
      "à": 97,
      "á": 98,
      "â": 99,
      "ã": 100,
      "ä": 101,
      "å": 102,
      "ç": 103,
      "è": 104,
      "é": 105,
      "ë": 106,
      "í": 107,
      "î": 108,
      "ï": 109,
      "ñ": 110,
      "ò": 111,
      "ó": 112,
      "ô": 113,
      "õ": 114,
      "ö": 115,
      "ø": 116,
      "ù": 117,
      "ú": 118,
      "ü": 119,
      "ý": 120,
      "ā": 121,
      "ă": 122,
      "ć": 123,
      "č": 124,
      "ě": 125,
      "ı": 126,
      "ō": 127,
      "Ř": 128,
      "ř": 129,
      "ś": 130,
      "Ş": 131,
      "ş": 132,
      "Š": 133,
      "š": 134,
      "ū": 135,
      "Ž": 136,
      "ș": 137,
      "Б": 138,
      "а": 139,
      "б": 140,
      "е": 141,
      "р": 142,
      "т": 143,
      "у": 144,
      "ḥ": 145,
      "–": 146,
      "—": 147,
      "‘": 148,
      "’": 149,
      "db": 150,
      "BJ": 151,
      "OT": 152,
      "dbr": 153,
      "in": 154,
      "Ca": 155,
      "ar": 156,
      "er": 157,
      "an": 158,
      "PR": 159,
      "PRE": 160,
      "EOT": 161,
      "OBJ": 162,
      "SU": 163,
      "SOT": 164,
      "dbo": 165,
      "PRED": 166,
      "SUBJ": 167,
      "il": 168,
      "st": 169,
      "ing": 170,
      "re": 171,
      "ilm": 172,
      "film": 173,
      "on": 174,
      "or": 175,
      "star": 176,
      "he": 177,
      "ring": 178,
      "starring": 179,
      "it": 180,
      "ed": 181,
      "en": 182,
      "and": 183,
      "ct": 184,
      "is": 185,
      "as": 186,
      "e_": 187,
      "al": 188,
      "ic": 189,
      "the": 190,
      "di": 191,
      "ll": 192,
      "ro": 193,
      "Cap": 194,
      "at": 195,
      "19": 196,
      "es": 197,
      "rect": 198,
      "direct": 199,
      "by": 200,
      "ta": 201,
      "un": 202,
      "am": 203,
      "el": 204,
      "rit": 205,
      "in_": 206,
      "_film": 207,
      "Can": 208,
      "a_": 209,
      "ti": 210,
      "writ": 211,
      "20": 212,
      "le": 213,
      "Capta": 214,
      "uc": 215,
      "Cam": 216,
      "of": 217,
      "y_": 218,
      "_M": 219,
      "Captain_": 220,
      "writer": 221,
      "me": 222,
      "director": 223,
      "pro": 224,
      "ol": 225,
      "Call": 226,
      "The": 227,
      "prod": 228,
      "ad": 229,
      "produc": 230,
      "ur": 231,
      "Cal": 232,
      "_S": 233,
      "ac": 234,
      "et": 235,
      "om": 236,
      "us": 237,
      "ir": 238,
      "run": 239,
      "time": 240,
      "ill": 241,
      "runtime": 242,
      "producer": 243,
      "th": 244,
      "directed": 245,
      "mer": 246,
      "ri": 247,
      "ion": 248,
      "ay": 249,
      "_B": 250,
      "to": 251,
      "was": 252,
      "ent": 253,
      "for": 254,
      "Jo": 255,
      "ni": 256,
      "Amer": 257,
      "Americ": 258,
      "It": 259,
      "Ro": 260,
      "man": 261,
      "ber": 262,
      "_C": 263,
      "_F": 264,
      "ho": 265,
      "id": 266,
      "201": 267,
      "_A": 268,
      "lo": 269,
      "_H": 270,
      "Mar": 271,
      "Camp": 272,
      "ard": 273,
      "_G": 274,
      "av": 275,
      "_D": 276,
      "_the": 277,
      "ch": 278,
      "ag": 279,
      "ov": 280,
      "ut": 281,
      "ul": 282,
      "ased": 283,
      "_W": 284,
      "200": 285,
      "ell": 286,
      "St": 287,
      "act": 288,
      "iv": 289,
      "American": 290,
      "ig": 291,
      "ure": 292,
      "io": 293,
      "ers": 294,
      "ab": 295,
      "ten": 296,
      "Ch": 297,
      "Cab": 298,
      "_P": 299,
      "ra": 300,
      "se": 301,
      "est": 302,
      "com": 303,
      "co": 304,
      "rele": 305,
      "ne": 306,
      "od": 307,
      "all": 308,
      "hn": 309,
      "ich": 310,
      "_L": 311,
      "ev": 312,
      "An": 313,
      "her": 314,
      "os": 315,
      "Cali": 316,
      "em": 317,
      "ith": 318,
      "John": 319,
      "s_": 320,
      "ter": 321,
      "um": 322,
      "ak": 323,
      "Cand": 324,
      "ie": 325,
      "im": 326,
      "ow": 327,
      "Call_": 328,
      "ian": 329,
      "written": 330,
      "son": 331,
      "ou": 332,
      "194": 333,
      "ack": 334,
      "ap": 335,
      "_R": 336,
      "Caf": 337,
      "forni": 338,
      "Californi": 339,
      "ram": 340,
      "_K": 341,
      "ric": 342,
      "bert": 343,
      "_T": 344,
      "ran": 345,
      "sh": 346,
      "193": 347,
      "eri": 348,
      "au": 349,
      "stars": 350,
      "irl": 351,
      "ation": 352,
      "actor": 353,
      "rama": 354,
      "Car": 355,
      "ass": 356,
      "les": 357,
      "Cad": 358,
      "00": 359,
      "pl": 360,
      "sc": 361,
      "oc": 362,
      "of_the": 363,
      "drama": 364,
      "ot": 365,
      "Calling": 366,
      "ore": 367,
      "Al": 368,
      "California_": 369,
      "art": 370,
      "ce": 371,
      "Cag": 372,
      "196": 373,
      "op": 374,
      "199": 375,
      "edy": 376,
      "ical": 377,
      "de": 378,
      "end": 379,
      "Captain": 380,
      "fe": 381,
      "ht": 382,
      "ern": 383,
      "so": 384,
      "tiv": 385,
      "released": 386,
      "qu": 387,
      "ang": 388,
      "ia": 389,
      "ict": 390,
      "Captiv": 391,
      "comedy": 392,
      "with": 393,
      "ory": 394,
      "ton": 395,
      "der": 396,
      "ish": 397,
      "ew": 398,
      "org": 399,
      "based": 400,
      "198": 401,
      "ry": 402,
      "ug": 403,
      "seri": 404,
      "Call_M": 405,
      "ear": 406,
      "_E": 407,
      "ud": 408,
      "In": 409,
      "192": 410,
      "5_film": 411,
      "ine": 412,
      "ate": 413,
      "ck": 414,
      "ick": 415,
      "Camill": 416,
      "Call_Me_": 417,
      "be": 418,
      "res": 419,
      "_The": 420,
      "red": 421,
      "Film": 422,
      "his": 423,
      "ren": 424,
      "ame": 425,
      "_Ro": 426,
      "ph": 427,
      "_St": 428,
      "old": 429,
      "Cl": 430,
      "rom": 431,
      "Camille_": 432,
      "up": 433,
      "age": 434,
      "aw": 435,
      "ort": 436,
      "_Girl": 437,
      "our": 438,
      "who": 439,
      "Cann": 440,
      "ast": 441,
      "oun": 442,
      "Call_of_the": 443,
      "_Y": 444,
      "ary": 445,
      "Robert": 446,
      "80": 447,
      "Fran": 448,
      "_N": 449,
      "from": 450,
      "illi": 451,
      "ark": 452,
      "play": 453,
      "bal": 454,
      "60": 455,
      "7_film": 456,
      "8_film": 457,
      "ly": 458,
      "tt": 459,
      "nibal": 460,
      "Dav": 461,
      "197": 462,
      "Jan": 463,
      "ep": 464,
      "og": 465,
      "ase": 466,
      "4_film": 467,
      "ey": 468,
      "6_film": 469,
      "con": 470,
      "han": 471,
      "mus": 472,
      "oll": 473,
      "produced": 474,
      "Ar": 475,
      "195": 476,
      "ess": 477,
      "Cannibal": 478,
      "ff": 479,
      "Camer": 480,
      "Captain_Americ": 481,
      "Har": 482,
      "Jam": 483,
      "ist": 484,
      "Café": 485,
      "ures": 486,
      "Capric": 487,
      "Caged": 488,
      "Captive_": 489,
      "Le": 490,
      "2_film": 491,
      "40": 492,
      "Ed": 493,
      "ier": 494,
      "iro": 495,
      "de_": 496,
      "ust": 497,
      "ward": 498,
      "reen": 499,
      "Th": 500,
      "Un": 501,
      "Bar": 502,
      "ael": 503,
      "wh": 504,
      "irst": 505,
      "series": 506,
      "Ge": 507,
      "II": 508,
      "but": 509,
      "ris": 510,
      "ild": 511,
      "release": 512,
      "_O": 513,
      "ight": 514,
      "iel": 515,
      "te": 516,
      "lood": 517,
      "Georg": 518,
      "ex": 519,
      "dian": 520,
      "Candy": 521,
      "illiam": 522,
      "_and": 523,
      "ub": 524,
      "aret": 525,
      "uck": 526,
      "Calam": 527,
      "Candy_": 528,
      "William": 529,
      "li": 530,
      "ovel": 531,
      "ichael": 532,
      "Sh": 533,
      "_J": 534,
      "ger": 535,
      "feat": 536,
      "0_film": 537,
      "enn": 538,
      "e_M": 539,
      "ald": 540,
      "eb": 541,
      "ong": 542,
      "James": 543,
      "Michael": 544,
      "ke": 545,
      "pe": 546,
      "story": 547,
      "one": 548,
      "_All": 549,
      "Cabaret": 550,
      "ord": 551,
      "e_F": 552,
      "191": 553,
      "iller": 554,
      "screen": 555,
      "novel": 556,
      "also": 557,
      "ain": 558,
      "yon": 559,
      "Calling_All": 560,
      "Dan": 561,
      "Cairo": 562,
      "ity_": 563,
      "David": 564,
      "Ad": 565,
      "tr": 566,
      "er_": 567,
      "orn": 568,
      "ley": 569,
      "ney": 570,
      "endar": 571,
      "rac": 572,
      "ss": 573,
      "ath": 574,
      "Captain_F": 575,
      "ade": 576,
      "Calendar": 577,
      "Pa": 578,
      "Rich": 579,
      "ip": 580,
      "ob": 581,
      "alian": 582,
      "Cabin_": 583,
      "Jack": 584,
      "ost": 585,
      "Canyon": 586,
      "ival": 587,
      "Ph": 588,
      "ec": 589,
      "ght": 590,
      "3_film": 591,
      "Don": 592,
      "ah": 593,
      "ai": 594,
      "adian": 595,
      "eo": 596,
      "ver": 597,
      "estival": 598,
      "Date": 599,
      "Pict": 600,
      "oth": 601,
      "out": 602,
      "ity": 603,
      "Campus": 604,
      "releaseDate": 605,
      "Pictures": 606,
      "ia_": 607,
      "ind": 608,
      "e_L": 609,
      "e_S": 610,
      "rist": 611,
      "yn": 612,
      "ina": 613,
      "ush": 614,
      "Richard": 615,
      "aj": 616,
      "o_": 617,
      "oy": 618,
      "pre": 619,
      "wo": 620,
      "und": 621,
      "Cadet": 622,
      "Paul": 623,
      "1_film": 624,
      "Festival": 625,
      "Nor": 626,
      "che": 627,
      "ung": 628,
      "Camil": 629,
      "off": 630,
      "Candyman": 631,
      "9_film": 632,
      "Je": 633,
      "pan": 634,
      "tin": 635,
      "ins": 636,
      "e_H": 637,
      "Capit": 638,
      "el_": 639,
      "Canadian": 640,
      "oman": 641,
      "Captain_America": 642,
      "La": 643,
      "ry_": 644,
      "ero": 645,
      "ond": 646,
      "enc": 647,
      "ice": 648,
      "Italian": 649,
      "Camping": 650,
      "Frank": 651,
      "which": 652,
      "54": 653,
      "Am": 654,
      "tit": 655,
      "ere": 656,
      "under": 657,
      "_Mus": 658,
      "musical": 659,
      "V_": 660,
      "las": 661,
      "per": 662,
      "that": 663,
      "Calendar_Girl": 664,
      "V_series": 665,
      "3F": 666,
      "Br": 667,
      "El": 668,
      "ies": 669,
      "ner": 670,
      "ated": 671,
      "Char": 672,
      "estern": 673,
      "Di": 674,
      "Van": 675,
      "az": 676,
      "cl": 677,
      "uk": 678,
      "wor": 679,
      "att": 680,
      "ovie": 681,
      "All": 682,
      "De": 683,
      "ik": 684,
      "s_C": 685,
      "ari": 686,
      "ile": 687,
      "orr": 688,
      "hen": 689,
      "Calm": 690,
      "And": 691,
      "short": 692,
      "Jon": 693,
      "War": 694,
      "ail": 695,
      "eg": 696,
      "lin": 697,
      "ary_": 698,
      "ction": 699,
      "ele": 700,
      "lood_": 701,
      "ay_": 702,
      "du": 703,
      "iet": 704,
      "mith": 705,
      "ru": 706,
      "ts": 707,
      "tto": 708,
      "ite": 709,
      "iss": 710,
      "berg": 711,
      "_De": 712,
      "about": 713,
      "ational": 714,
      "ress": 715,
      "Caged_": 716,
      "Calamity_": 717,
      "Brit": 718,
      "Fren": 719,
      "New": 720,
      "Pet": 721,
      "ball": 722,
      "gen": 723,
      "land": 724,
      "ok": 725,
      "same": 726,
      "vent": 727,
      "wan": 728,
      "ines": 729,
      "ont": 730,
      "tion": 731,
      "_Mc": 732,
      "French": 733,
      "Con": 734,
      "Girl": 735,
      "No": 736,
      "Sam": 737,
      "af": 738,
      "ment": 739,
      "ray": 740,
      "ven": 741,
      "are": 742,
      "one_": 743,
      "its": 744,
      "Capt": 745,
      "esar": 746,
      "idd": 747,
      "2006_film": 748,
      "Christ": 749,
      "app": 750,
      "serial": 751,
      "18": 752,
      "Wal": 753,
      "bo": 754,
      "first": 755,
      "mak": 756,
      "set": 757,
      "tel": 758,
      "we": 759,
      "ash": 760,
      "e_B": 761,
      "ide": 762,
      "iott": 763,
      "ember": 764,
      "Caprice_": 765,
      "Ab": 766,
      "Ap": 767,
      "Is": 768,
      "TV_series": 769,
      "_II": 770,
      "wn": 771,
      "Cain_": 772,
      "advent": 773,
      "tern": 774,
      "Cannon": 775,
      "feature": 776,
      "title": 777,
      "Par": 778,
      "Pat": 779,
      "Western": 780,
      "ien": 781,
      "yp": 782,
      "Caesar": 783,
      "ann": 784,
      "ited": 785,
      "lliott": 786,
      "Calc": 787,
      "Marv": 788,
      "Anne": 789,
      "ugh": 790,
      "racass": 791,
      "British": 792,
      "Mc": 793,
      "dy": 794,
      "ld": 795,
      "sen": 796,
      "sup": 797,
      "inal": 798,
      "ury": 799,
      "rime": 800,
      "ive": 801,
      "Captain_America_": 802,
      "Captain_Fracass": 803,
      "Ber": 804,
      "King": 805,
      "_I": 806,
      "_a_": 807,
      "eat": 808,
      "ke_": 809,
      "mo": 810,
      "made": 811,
      "riller": 812,
      "anc": 813,
      "ision": 814,
      "e_W": 815,
      "urn": 816,
      "ach": 817,
      "thriller": 818,
      "2015_film": 819,
      "apt": 820,
      "Clark": 821,
      "oung": 822,
      "ei": 823,
      "ly_": 824,
      "port": 825,
      "sil": 826,
      "ara": 827,
      "ori": 828,
      "202": 829,
      "adis": 830,
      "_The_F": 831,
      "_Rock": 832,
      "_You": 833,
      "Edward": 834,
      "screenplay": 835,
      "Daniel": 836,
      "adventure": 837,
      "Cannonball": 838,
      "silent": 839,
      "Bro": 840,
      "Bill": 841,
      "Gold": 842,
      "Me": 843,
      "Tom": 844,
      "ire": 845,
      "la": 846,
      "ini": 847,
      "ance": 848,
      "ony": 849,
      "a_P": 850,
      "Cameo": 851,
      "Captain_S": 852,
      "ett": 853,
      "irby": 854,
      "low": 855,
      "here": 856,
      "oug": 857,
      "Phil": 858,
      "Charles": 859,
      "orror": 860,
      "Bri": 861,
      "Jul": 862,
      "_Un": 863,
      "ez": 864,
      "horror": 865,
      "yan": 866,
      "ino": 867,
      "ank": 868,
      "stri": 869,
      "roman": 870,
      "ater": 871,
      "y_R": 872,
      "night": 873,
      "action": 874,
      "evision": 875,
      "_Th": 876,
      "shack": 877,
      "Caddy": 878,
      "Janu": 879,
      "Café_": 880,
      "Peter": 881,
      "television": 882,
      "ternational": 883,
      "Caesar_and": 884,
      "Caddyshack": 885,
      "Award": 886,
      "Fred": 887,
      "Lou": 888,
      "_V": 889,
      "_Z": 890,
      "name": 891,
      "tic": 892,
      "Cake_": 893,
      "ors": 894,
      "ates": 895,
      "ely": 896,
      "_Mar": 897,
      "Captain_K": 898,
      "Joe": 899,
      "utta": 900,
      "_Wil": 901,
      "ious": 902,
      "ally": 903,
      "Clau": 904,
      "Camping_": 905,
      "work": 906,
      "Calcutta": 907,
      "Fev": 908,
      "Gu": 909,
      "doc": 910,
      "ef": 911,
      "ial": 912,
      "lan": 913,
      "su": 914,
      "ant": 915,
      "ason": 916,
      "e_D": 917,
      "a_S": 918,
      "Camel": 919,
      "adapt": 920,
      "Jose": 921,
      "America": 922,
      "own": 923,
      "ociet": 924,
      "Barb": 925,
      "ield": 926,
      "ordon": 927,
      "prem": 928,
      "Jean": 929,
      "Louis": 930,
      "Her": 931,
      "ge": 932,
      "kan": 933,
      "sho": 934,
      "year": 935,
      "roles": 936,
      "olo": 937,
      "Call_Girl": 938,
      "uss": 939,
      "_Ab": 940,
      "ove": 941,
      "Stev": 942,
      "_Par": 943,
      "_The_Mus": 944,
      "Cain_and": 945,
      "premier": 946,
      "_The_Musical": 947,
      "57": 948,
      "Ac": 949,
      "En": 950,
      "Hel": 951,
      "Lu": 952,
      "Mo": 953,
      "Mur": 954,
      "crime": 955,
      "ea": 956,
      "iz": 957,
      "ron": 958,
      "uage": 959,
      "ution": 960,
      "vers": 961,
      "Care": 962,
      "itt": 963,
      "die": 964,
      "distri": 965,
      "Capone_": 966,
      "esp": 967,
      "tain": 968,
      "Canad": 969,
      "omic": 970,
      "berto": 971,
      "Martin": 972,
      "ave": 973,
      "char": 974,
      "_War": 975,
      "raz": 976,
      "Ann": 977,
      "ummer": 978,
      "_Kirby": 979,
      "anguage": 980,
      "International": 981,
      "music": 982,
      "Candyman_": 983,
      "Cameo_Kirby": 984,
      "Joseph": 985,
      "Cameo_Kirby_": 986,
      "Blood_": 987,
      "Co": 988,
      "Ger": 989,
      "Hal": 990,
      "Man": 991,
      "Vict": 992,
      "ait": 993,
      "field": 994,
      "lor": 995,
      "mond": 996,
      "no": 997,
      "udi": 998,
      "ull": 999,
      "yle": 1000,
      "into": 1001,
      "Cact": 1002,
      "ara_": 1003,
      "ert": 1004,
      "ream": 1005,
      "icol": 1006,
      "Cape_F": 1007,
      "ese": 1008,
      "Captain_C": 1009,
      "Captain_Blood_": 1010,
      "add": 1011,
      "ace": 1012,
      "eth": 1013,
      "sequ": 1014,
      "comp": 1015,
      "ument": 1016,
      "1947_film": 1017,
      "lesh": 1018,
      "Alf": 1019,
      "Captive": 1020,
      "ear_": 1021,
      "buted": 1022,
      "genre": 1023,
      "Philip": 1024,
      "romantic": 1025,
      "Cactus": 1026,
      "..": 1027,
      "Ale": 1028,
      "Best": 1029,
      "Gre": 1030,
      "Lew": 1031,
      "_Car": 1032,
      "air": 1033,
      "cent": 1034,
      "fict": 1035,
      "had": 1036,
      "ous": 1037,
      "ood": 1038,
      "sp": 1039,
      "ster": 1040,
      "ross": 1041,
      "unt": 1042,
      "elf": 1043,
      "Captain_M": 1044,
      "Calv": 1045,
      "2015": 1046,
      "raph": 1047,
      "cott": 1048,
      "California": 1049,
      "_Your": 1050,
      "Thom": 1051,
      "_and_the": 1052,
      "Capital": 1053,
      "ociety_": 1054,
      "charact": 1055,
      "Ben": 1056,
      "Sp": 1057,
      "foll": 1058,
      "hist": 1059,
      "ming": 1060,
      "movie": 1061,
      "ston": 1062,
      "or_": 1063,
      "role": 1064,
      "lead": 1065,
      "urt": 1066,
      "ache": 1067,
      "2016": 1068,
      "2008_film": 1069,
      "elly": 1070,
      "erson": 1071,
      "oward": 1072,
      "George": 1073,
      "Donald": 1074,
      "Capture": 1075,
      "Victor": 1076,
      "follow": 1077,
      "Hor": 1078,
      "Mad": 1079,
      "May": 1080,
      "Wil": 1081,
      "fer": 1082,
      "ham": 1083,
      "s_S": 1084,
      "ue": 1085,
      "uring": 1086,
      "ered": 1087,
      "rew": 1088,
      "itho": 1089,
      "e_and": 1090,
      "ati": 1091,
      "une": 1092,
      "of_H": 1093,
      "_Man": 1094,
      "rip": 1095,
      "ries": 1096,
      "2014": 1097,
      "2014_film": 1098,
      "Camp_": 1099,
      "ivil": 1100,
      "Thunder": 1101,
      "United": 1102,
      "Cabaret_": 1103,
      "Cairo_": 1104,
      "wood": 1105,
      "_The_First": 1106,
      "document": 1107,
      "ithout": 1108,
      "Col": 1109,
      "Gi": 1110,
      "_7": 1111,
      "can": 1112,
      "ek": 1113,
      "kn": 1114,
      "ler": 1115,
      "not": 1116,
      "inter": 1117,
      "ans": 1118,
      "head": 1119,
      "ism": 1120,
      "rough": 1121,
      "2020": 1122,
      "ley_": 1123,
      "oldi": 1124,
      "urs": 1125,
      "Calig": 1126,
      "omen": 1127,
      "idnight": 1128,
      "2010_film": 1129,
      "_Dr": 1130,
      "ula": 1131,
      "1935_film": 1132,
      "1936_film": 1133,
      "California_S": 1134,
      "debut": 1135,
      "Camera_": 1136,
      "ubl": 1137,
      "Cabin_Fev": 1138,
      "Camille": 1139,
      "5400": 1140,
      "Captain_Fracasse_": 1141,
      "Café_de_": 1142,
      "distributed": 1143,
      "Cape_Fear_": 1144,
      "fiction": 1145,
      "character": 1146,
      "12": 1147,
      "52": 1148,
      "600": 1149,
      "77": 1150,
      "Gab": 1151,
      "Kev": 1152,
      "Ma": 1153,
      "Ol": 1154,
      "Pier": 1155,
      "She": 1156,
      "Sal": 1157,
      "Ton": 1158,
      "_Ca": 1159,
      "ki": 1160,
      "ky": 1161,
      "ve": 1162,
      "yd": 1163,
      "incl": 1164,
      "e_G": 1165,
      "ato": 1166,
      "esc": 1167,
      "2019": 1168,
      "y_D": 1169,
      "olog": 1170,
      "_Sto": 1171,
      "acon": 1172,
      "illac": 1173,
      "thur": 1174,
      "rig": 1175,
      "Mario": 1176,
      "Marsh": 1177,
      "actress": 1178,
      "abes": 1179,
      "Chris": 1180,
      "less": 1181,
      "Cadillac": 1182,
      "Calling_Dr": 1183,
      "1926": 1184,
      "ephen": 1185,
      "_Otto": 1186,
      "features": 1187,
      "Calamity_Anne": 1188,
      "after": 1189,
      "appear": 1190,
      "Caesar_and_Otto": 1191,
      "premiered": 1192,
      "Helen": 1193,
      "Canada": 1194,
      "histor": 1195,
      "known": 1196,
      "51": 1197,
      "58": 1198,
      "Bh": 1199,
      "Dor": 1200,
      "Day": 1201,
      "Em": 1202,
      "Mil": 1203,
      "Mel": 1204,
      "Ram": 1205,
      "_9": 1206,
      "eed": 1207,
      "lav": 1208,
      "nom": 1209,
      "oo": 1210,
      "t_H": 1211,
      "two": 1212,
      "filmmak": 1213,
      "cted": 1214,
      "along": 1215,
      "unic": 1216,
      "amp": 1217,
      "tier": 1218,
      "form": 1219,
      "_Flesh": 1220,
      "ell_": 1221,
      "ign": 1222,
      "Candles": 1223,
      "1948_film": 1224,
      "rick": 1225,
      "Alan": 1226,
      "Albert": 1227,
      "fect": 1228,
      "rison": 1229,
      "Allan": 1230,
      "Newman": 1231,
      "sequel": 1232,
      "Alex": 1233,
      "follows": 1234,
      "documentary": 1235,
      "55": 1236,
      "Dis": 1237,
      "Dream": 1238,
      "Est": 1239,
      "He": 1240,
      "Hen": 1241,
      "Jer": 1242,
      "Luc": 1243,
      "Ron": 1244,
      "This": 1245,
      "Wh": 1246,
      "band": 1247,
      "cast": 1248,
      "ders": 1249,
      "hi": 1250,
      "ie_": 1251,
      "mas": 1252,
      "vas": 1253,
      "were": 1254,
      "ani": 1255,
      "ily": 1256,
      "ita": 1257,
      "andol": 1258,
      "Capp": 1259,
      "Came_": 1260,
      "_Civil": 1261,
      "2011": 1262,
      "_Am": 1263,
      "_Ap": 1264,
      "Marc": 1265,
      "Camp_B": 1266,
      "Caboc": 1267,
      "Anth": 1268,
      "emy": 1269,
      "ake": 1270,
      "ower": 1271,
      "Cafe_M": 1272,
      "Calling_the": 1273,
      "1968_film": 1274,
      "opher": 1275,
      "_Elliott": 1276,
      "Jane": 1277,
      "cond": 1278,
      "Arthur": 1279,
      "Harold": 1280,
      "Leon": 1281,
      "las_": 1282,
      "Marvel": 1283,
      "Captain_Kidd": 1284,
      "Alfred": 1285,
      "Marshall": 1286,
      "historical": 1287,
      "_Civil_War": 1288,
      "Cabocla": 1289,
      "48": 1290,
      "61": 1291,
      "64": 1292,
      "Aust": 1293,
      "Doug": 1294,
      "Far": 1295,
      "Gr": 1296,
      "Gordon": 1297,
      "Jr": 1298,
      "Pro": 1299,
      "Sep": 1300,
      "Smith": 1301,
      "Wild": 1302,
      "bro": 1303,
      "cre": 1304,
      "ful": 1305,
      "ha": 1306,
      "has": 1307,
      "ib": 1308,
      "kin": 1309,
      "ker": 1310,
      "len": 1311,
      "mi": 1312,
      "mon": 1313,
      "ox": 1314,
      "sy": 1315,
      "tta": 1316,
      "tember": 1317,
      "t_Sto": 1318,
      "well": 1319,
      "ya": 1320,
      "re_": 1321,
      "orld": 1322,
      "e_T": 1323,
      "athan": 1324,
      "Camin": 1325,
      "_Mart": 1326,
      "Captain_Janu": 1327,
      "ury_": 1328,
      "Calyp": 1329,
      "_Smith": 1330,
      "acre": 1331,
      "ther": 1332,
      "rid": 1333,
      "_Bill": 1334,
      "_Far": 1335,
      "_An": 1336,
      "Mark": 1337,
      "Camp_Rock": 1338,
      "ulin": 1339,
      "2008": 1340,
      "States": 1341,
      "Stephen": 1342,
      "io_": 1343,
      "_Le": 1344,
      "Call_It": 1345,
      "_Ra": 1346,
      "assage": 1347,
      "assacre": 1348,
      "_Style": 1349,
      "arker": 1350,
      "exp": 1351,
      "Candy_Clark": 1352,
      "life": 1353,
      "Norman": 1354,
      "Capitol": 1355,
      "encer": 1356,
      "Italian_Style": 1357,
      "_Dead": 1358,
      "Caprice_Italian_Style": 1359,
      "_Marines": 1360,
      "Herbert": 1361,
      "_Abel_": 1362,
      "Cain_and_Abel_": 1363,
      "udios": 1364,
      "Captured": 1365,
      "oldier": 1366,
      "includ": 1367,
      "filmmaker": 1368,
      "September": 1369,
      "Captain_January_": 1370,
      "Calypso": 1371,
      "11": 1372,
      "22": 1373,
      "Boy": 1374,
      "Ev": 1375,
      "Eli": 1376,
      "Howard": 1377,
      "Jac": 1378,
      "Jess": 1379,
      "Mal": 1380,
      "Mat": 1381,
      "Mac": 1382,
      "Ray": 1383,
      "Sc": 1384,
      "Sim": 1385,
      "Ter": 1386,
      "Ver": 1387,
      "We": 1388,
      "lack": 1389,
      "mar": 1390,
      "p_the": 1391,
      "von": 1392,
      "zz": 1393,
      "án": 1394,
      "inem": 1395,
      "Cain": 1396,
      "e_No": 1397,
      "Capot": 1398,
      "es_": 1399,
      "un_II": 1400,
      "Canal": 1401,
      "Canvas": 1402,
      "y_M": 1403,
      "y_Ro": 1404,
      "_Mo": 1405,
      "_Mur": 1406,
      "Captain_Care": 1407,
      "Captain_Thunder": 1408,
      "oland": 1409,
      "ura_": 1410,
      "right": 1411,
      "Jos": 1412,
      "_Fury_": 1413,
      "March": 1414,
      "_Woman": 1415,
      "2007": 1416,
      "elli": 1417,
      "igh": 1418,
      "second": 1419,
      "_Run_II": 1420,
      "1936": 1421,
      "orest": 1422,
      "Cage": 1423,
      "dep": 1424,
      "_Story": 1425,
      "ount": 1426,
      "1950": 1427,
      "Harry_": 1428,
      "Caged_Fury_": 1429,
      "_Music": 1430,
      "during": 1431,
      "Christopher": 1432,
      "e_Without": 1433,
      "Cannonball_Run_II": 1434,
      "y_Rick": 1435,
      "Caddyshack_II": 1436,
      "Call_Girl_": 1437,
      "Thomas": 1438,
      "Spencer": 1439,
      "ublic": 1440,
      "Pierre": 1441,
      "Cappy_Rick": 1442,
      "t_Stop_the": 1443,
      "Capitol_": 1444,
      "t_Stop_the_Music": 1445,
      "13": 1446,
      "300": 1447,
      "Bo": 1448,
      "Bern": 1449,
      "Dr": 1450,
      "Elliott": 1451,
      "For": 1452,
      "Flo": 1453,
      "Gen": 1454,
      "Hu": 1455,
      "Lion": 1456,
      "Mor": 1457,
      "Matt": 1458,
      "Ob": 1459,
      "Scott": 1460,
      "Women": 1461,
      "bet": 1462,
      "bell": 1463,
      "bio": 1464,
      "cal": 1465,
      "gent": 1466,
      "if": 1467,
      "my": 1468,
      "ole": 1469,
      "pic": 1470,
      "part": 1471,
      "ril": 1472,
      "ra_": 1473,
      "t_B": 1474,
      "uel": 1475,
      "vol": 1476,
      "erb": 1477,
      "ree": 1478,
      "film_": 1479,
      "ition": 1480,
      "ence": 1481,
      "e_of": 1482,
      "ale": 1483,
      "ats": 1484,
      "a_H": 1485,
      "Captain_L": 1486,
      "Captain_N": 1487,
      "Captain_Marv": 1488,
      "ademy": 1489,
      "ura": 1490,
      "ette": 1491,
      "illon": 1492,
      "Joe_": 1493,
      "ideo": 1494,
      "2012": 1495,
      "2016_film": 1496,
      "2012_film": 1497,
      "Mart": 1498,
      "agger": 1499,
      "_Wild": 1500,
      "2000": 1501,
      "2009": 1502,
      "Stan": 1503,
      "ester": 1504,
      "ode": 1505,
      "anga": 1506,
      "1984_film": 1507,
      "udd": 1508,
      "Franc": 1509,
      "Cameron": 1510,
      "Jeff": 1511,
      "Andrew": 1512,
      "venger": 1513,
      "Brian": 1514,
      "anks": 1515,
      "adaptation": 1516,
      "Academy": 1517,
      "2020_film": 1518,
      "Disney": 1519,
      "Obsc": 1520,
      "Captain_Marvel_": 1521,
      ").": 1522,
      "21": 1523,
      "49": 1524,
      "Be": 1525,
      "Bob": 1526,
      "Feb": 1527,
      "Holl": 1528,
      "Kim": 1529,
      "Red": 1530,
      "Span": 1531,
      "Tim": 1532,
      "Vin": 1533,
      "col": 1534,
      "da_": 1535,
      "fo": 1536,
      "gro": 1537,
      "graph": 1538,
      "jun": 1539,
      "lar": 1540,
      "ling": 1541,
      "language": 1542,
      "more": 1543,
      "rad": 1544,
      "sid": 1545,
      "sco": 1546,
      "inn": 1547,
      "aron": 1548,
      "onz": 1549,
      "orig": 1550,
      "itanga": 1551,
      "enz": 1552,
      "anders": 1553,
      "ise": 1554,
      "e_N": 1555,
      "esh": 1556,
      "Candi": 1557,
      "_Mon": 1558,
      "_Mor": 1559,
      "Captain_Newman": 1560,
      "_Soldier": 1561,
      "ried": 1562,
      "_Ch": 1563,
      "2010": 1564,
      "2018": 1565,
      "2018_film": 1566,
      "_Hol": 1567,
      "_Heat": 1568,
      "_Gold": 1569,
      "_Winter": 1570,
      "Studios": 1571,
      "odd": 1572,
      "hero": 1573,
      "son_": 1574,
      "outh": 1575,
      "1943": 1576,
      "_Ram": 1577,
      "sound": 1578,
      "Indian": 1579,
      "1927_film": 1580,
      "_The_Winter": 1581,
      "Canner": 1582,
      "Argent": 1583,
      "while": 1584,
      "Calamari": 1585,
      "screenwriter": 1586,
      "Calling_All_C": 1587,
      "other": 1588,
      "North": 1589,
      "Calendar_Girl_": 1590,
      "Jonathan": 1591,
      "ruary": 1592,
      "Island": 1593,
      "support": 1594,
      "2021_film": 1595,
      "Claud": 1596,
      "_Paradis": 1597,
      "Murray": 1598,
      "Captain_Midnight": 1599,
      "1926_": 1600,
      "Camp_Blood": 1601,
      "José": 1602,
      "February": 1603,
      "_The_Winter_Soldier": 1604,
      "Cor": 1605,
      "Dar": 1606,
      "Jap": 1607,
      "Lar": 1608,
      "Luck": 1609,
      "Mon": 1610,
      "Nick": 1611,
      "Ral": 1612,
      "Rep": 1613,
      "Se": 1614,
      "Ty": 1615,
      "Tam": 1616,
      "Todd": 1617,
      "Wait": 1618,
      "_U": 1619,
      "_Camp": 1620,
      "aus": 1621,
      "aum": 1622,
      "cess": 1623,
      "ding": 1624,
      "ech": 1625,
      "go": 1626,
      "gin": 1627,
      "led": 1628,
      "last": 1629,
      "ma": 1630,
      "por": 1631,
      "ple": 1632,
      "pol": 1633,
      "ras": 1634,
      "side": 1635,
      "self": 1636,
      "uth": 1637,
      "uff": 1638,
      "vad": 1639,
      "way": 1640,
      "Cake": 1641,
      "anta": 1642,
      "anim": 1643,
      "on_": 1644,
      "ones": 1645,
      "hed": 1646,
      "alkan": 1647,
      "ic_": 1648,
      "die_": 1649,
      "llen": 1650,
      "by_Your": 1651,
      "ame_": 1652,
      "tim": 1653,
      "y_B": 1654,
      "_Mer": 1655,
      "_Mak": 1656,
      "_Massacre": 1657,
      "Captain_V": 1658,
      "Captain_Ap": 1659,
      "uri": 1660,
      "Calap": 1661,
      "_Sh": 1662,
      "etro": 1663,
      "usband": 1664,
      "_Bar": 1665,
      "ford": 1666,
      "Jour": 1667,
      "Rob": 1668,
      "_Con": 1669,
      "_Cle": 1670,
      "how": 1671,
      "Camp_Wil": 1672,
      "_Di": 1673,
      "child": 1674,
      "ove_": 1675,
      "uren": 1676,
      "abeth": 1677,
      "China": 1678,
      "_Per": 1679,
      "_Pol": 1680,
      "coll": 1681,
      "s_of": 1682,
      "umb": 1683,
      "Call_O": 1684,
      "Cafe_S": 1685,
      "_Kid": 1686,
      "aux": 1687,
      "ation_": 1688,
      "Carlo": 1689,
      "scien": 1690,
      "California_Dream": 1691,
      "que": 1692,
      "organ": 1693,
      "ugust": 1694,
      "Call_Me_by_Your": 1695,
      "being": 1696,
      "away": 1697,
      "_Girls": 1698,
      "ourt": 1699,
      "ound": 1700,
      "_Name_": 1701,
      "illip": 1702,
      "1951": 1703,
      "Capricorn": 1704,
      "Lee": 1705,
      "Under": 1706,
      "George_": 1707,
      "ordan": 1708,
      "Phillip": 1709,
      "Campus_": 1710,
      "Camila_P": 1711,
      "Dix": 1712,
      "azz": 1713,
      "Capturing": 1714,
      "Walter": 1715,
      "ween": 1716,
      "Abu": 1717,
      "April": 1718,
      "_Union": 1719,
      "5700": 1720,
      "Greg": 1721,
      "Camera_Obsc": 1722,
      "Cabin_Fever_": 1723,
      "Austr": 1724,
      "Douglas": 1725,
      "between": 1726,
      "Spanish": 1727,
      "Calamari_Union": 1728,
      "Japan": 1729,
      "Ralph": 1730,
      "Republic": 1731,
      "Camp_Wilder": 1732,
      "Cafe_Society_": 1733,
      "Call_Me_by_Your_Name_": 1734,
      "Camila_Pitanga": 1735,
      "Camera_Obscura_": 1736,
      "0s": 1737,
      "August": 1738,
      "Blood": 1739,
      "Fern": 1740,
      "Kh": 1741,
      "Kar": 1742,
      "Love": 1743,
      "Mer": 1744,
      "Mex": 1745,
      "Nicol": 1746,
      "Pe": 1747,
      "Pl": 1748,
      "Per": 1749,
      "Qu": 1750,
      "Ray_": 1751,
      "Set": 1752,
      "Vir": 1753,
      "Wall": 1754,
      "Xmas": 1755,
      "dom": 1756,
      "fam": 1757,
      "gu": 1758,
      "iè": 1759,
      "rat": 1760,
      "s_M": 1761,
      "sub": 1762,
      "sele": 1763,
      "uction": 1764,
      "van": 1765,
      "war": 1766,
      "won": 1767,
      "woman": 1768,
      "young": 1769,
      "int": 1770,
      "erhero": 1771,
      "iles": 1772,
      "sts": 1773,
      "filmed": 1774,
      "itz": 1775,
      "itch": 1776,
      "edding": 1777,
      "ando": 1778,
      "them": 1779,
      "theat": 1780,
      "lli": 1781,
      "llis": 1782,
      "roll": 1783,
      "tak": 1784,
      "Can_": 1785,
      "a_G": 1786,
      "production": 1787,
      "ads": 1788,
      "_Bacon": 1789,
      "entry": 1790,
      "nie": 1791,
      "_Forg": 1792,
      "_Avenger": 1793,
      "uld": 1794,
      "Stra": 1795,
      "iver": 1796,
      "iving": 1797,
      "ive_": 1798,
      "Cabin": 1799,
      "_Love": 1800,
      "_Kelly": 1801,
      "orelli": 1802,
      "1994_film": 1803,
      "been": 1804,
      "Canned": 1805,
      "Cannes": 1806,
      "Call_of_the_S": 1807,
      "Call_of_the_Rock": 1808,
      "Eddie": 1809,
      "ildare": 1810,
      "_One": 1811,
      "oster": 1812,
      "ver_Forg": 1813,
      "Cadet_Kelly": 1814,
      "pany": 1815,
      "Calendar_Girl_Mur": 1816,
      "ies_": 1817,
      "Direct": 1818,
      "Christian": 1819,
      "Param": 1820,
      "ussell": 1821,
      "compos": 1822,
      "_The_First_Avenger": 1823,
      "Kevin_": 1824,
      "Doroth": 1825,
      "nomin": 1826,
      "Bernard": 1827,
      "biograph": 1828,
      "Cannery_Ro": 1829,
      "Argentine": 1830,
      "Lucky": 1831,
      "Calapor_": 1832,
      "Journey": 1833,
      "Capricorn_One": 1834,
      "Mexic": 1835,
      "Straight": 1836,
      "Call_of_the_Rockies_": 1837,
      "Calendar_Girl_Murders": 1838,
      "),": 1839,
      "09": 1840,
      "640": 1841,
      "70": 1842,
      "Ak": 1843,
      "Che": 1844,
      "Cur": 1845,
      "Com": 1846,
      "Craz": 1847,
      "Del": 1848,
      "Er": 1849,
      "Fel": 1850,
      "Fab": 1851,
      "Hay": 1852,
      "Hugh": 1853,
      "Jen": 1854,
      "Ko": 1855,
      "Lyn": 1856,
      "Nov": 1857,
      "Or": 1858,
      "Re": 1859,
      "Raj": 1860,
      "Sus": 1861,
      "Ven": 1862,
      "Vac": 1863,
      "_l": 1864,
      "bush": 1865,
      "fess": 1866,
      "gi": 1867,
      "him": 1868,
      "later": 1869,
      "min": 1870,
      "men": 1871,
      "pres": 1872,
      "rand": 1873,
      "s_Dead": 1874,
      "ving": 1875,
      "ves": 1876,
      "where": 1877,
      "water": 1878,
      "ys": 1879,
      "ink": 1880,
      "iny": 1881,
      "Cach": 1882,
      "inger": 1883,
      "ington": 1884,
      "rel": 1885,
      "rey_": 1886,
      "films": 1887,
      "oney": 1888,
      "starred": 1889,
      "ander": 1890,
      "asse": 1891,
      "Capulin": 1892,
      "atio": 1893,
      "esert": 1894,
      "es_Per": 1895,
      "a_B": 1896,
      "a_de_": 1897,
      "y_S": 1898,
      "Captain_China": 1899,
      "olt": 1900,
      "Calven": 1901,
      "irie": 1902,
      "illa": 1903,
      "illesp": 1904,
      "thy": 1905,
      "this": 1906,
      "thro": 1907,
      "_Balkan": 1908,
      "ents": 1909,
      "_Forest": 1910,
      "hoe": 1911,
      "2013": 1912,
      "loud": 1913,
      "loset": 1914,
      "loyd": 1915,
      "Campfield": 1916,
      "ardly_": 1917,
      "_Gu": 1918,
      "_Dest": 1919,
      "chi": 1920,
      "2002": 1921,
      "Ste": 1922,
      "Story": 1923,
      "raff": 1924,
      "rawn": 1925,
      "rairie": 1926,
      "Anton": 1927,
      "emo": 1928,
      "s_Journey": 1929,
      "umar": 1930,
      "umber": 1931,
      "aker": 1932,
      "1942": 1933,
      "ocal": 1934,
      "California_F": 1935,
      "1965_film": 1936,
      "1924_film": 1937,
      "Call_Me_Lucky": 1938,
      "Claus": 1939,
      "astr": 1940,
      "6060": 1941,
      "Calamity": 1942,
      "pewriter": 1943,
      "Cabaret_Balkan": 1944,
      "1914_film": 1945,
      "Adol": 1946,
      "inds": 1947,
      "pants": 1948,
      "erox": 1949,
      "_Death": 1950,
      "Conn": 1951,
      "boat": 1952,
      "make": 1953,
      "Captain_Fracassa": 1954,
      "ly_Xmas": 1955,
      "lower": 1956,
      "_Through": 1957,
      "January": 1958,
      "shot": 1959,
      "years": 1960,
      "5760": 1961,
      "Cactus_Mak": 1962,
      "...": 1963,
      "Horatio": 1964,
      "e_and_F": 1965,
      "5100": 1966,
      "t_Hardly_": 1967,
      "Candleshoe": 1968,
      "_Bill_Elliott": 1969,
      "including": 1970,
      "Capote_": 1971,
      "Lionel": 1972,
      "Martin_": 1973,
      "supporting": 1974,
      "science": 1975,
      "Underpants": 1976,
      "Dixie": 1977,
      "Paramount": 1978,
      "Crazy": 1979,
      "s_Deadly_Xmas": 1980,
      "es_Perfect": 1981,
      "Calvento": 1982,
      "illespie": 1983,
      "Cactus_Makes_Perfect": 1984,
      "t_Hardly_Wait": 1985,
      "15": 1986,
      "16": 1987,
      "50": 1988,
      "Af": 1989,
      "Based": 1990,
      "Dem": 1991,
      "Dick": 1992,
      "Denn": 1993,
      "Fe": 1994,
      "Fore": 1995,
      "Fox": 1996,
      "Ke": 1997,
      "Les": 1998,
      "Language": 1999,
      "Lloyd": 2000,
      "Moun": 2001,
      "Nat": 2002,
      "Night": 2003,
      "Ra": 2004,
      "Ret": 2005,
      "Rick": 2006,
      "World": 2007,
      "_In": 2008,
      "blower": 2009,
      "cle": 2010,
      "da": 2011,
      "four": 2012,
      "gl": 2013,
      "get": 2014,
      "ient": 2015,
      "ja": 2016,
      "mm": 2017,
      "nes": 2018,
      "nam": 2019,
      "oz": 2020,
      "par": 2021,
      "pri": 2022,
      "pass": 2023,
      "prison": 2024,
      "psy": 2025,
      "sa_": 2026,
      "vious": 2027,
      "yl": 2028,
      "ía": 2029,
      "ías": 2030,
      "inst": 2031,
      "ine_": 2032,
      "Cac": 2033,
      "Caro": 2034,
      "era": 2035,
      "ane": 2036,
      "an_G": 2037,
      "inging": 2038,
      "reet": 2039,
      "onse": 2040,
      "only": 2041,
      "enar": 2042,
      "asil": 2043,
      "e_A": 2044,
      "e_Girl": 2045,
      "e_Dixie": 2046,
      "alia": 2047,
      "ice_": 2048,
      "their": 2049,
      "row": 2050,
      "Cape_No": 2051,
      "ama": 2052,
      "Can_T": 2053,
      "Cantin": 2054,
      "leg": 2055,
      "of_Dest": 2056,
      "y_G": 2057,
      "Captain_of_Dest": 2058,
      "oli": 2059,
      "Cal_": 2060,
      "Cala": 2061,
      "_Sk": 2062,
      "_Sch": 2063,
      "_Saw": 2064,
      "_Slav": 2065,
      "riel": 2066,
      "_Blood_": 2067,
      "_Be_Dixie": 2068,
      "Johan": 2069,
      "Rock": 2070,
      "Ross": 2071,
      "mann": 2072,
      "_Five_": 2073,
      "_Ahead": 2074,
      "_A_Five_": 2075,
      "ardo": 2076,
      "chin": 2077,
      "agar": 2078,
      "utthro": 2079,
      "ult": 2080,
      "ula_": 2081,
      "_Wedding": 2082,
      "2005_film": 2083,
      "Star": 2084,
      "State": 2085,
      "abu": 2086,
      "Chan": 2087,
      "Cabez": 2088,
      "_Prairie": 2089,
      "count": 2090,
      "osm": 2091,
      "Johnn": 2092,
      "ake_": 2093,
      "song": 2094,
      "1940": 2095,
      "1943_film": 2096,
      "1935": 2097,
      "Alg": 2098,
      "California_Straight": 2099,
      "1962_film": 2100,
      "endent": 2101,
      "quest": 2102,
      "ewart": 2103,
      "1929_film": 2104,
      "Call_Me_Crazy": 2105,
      "his_Be_Dixie": 2106,
      "Camille_Claud": 2107,
      "Call_of_the_Forest": 2108,
      "Call_of_the_Blood_": 2109,
      "Call_of_the_Prairie": 2110,
      "Harry": 2111,
      "Adam": 2112,
      "ornblower": 2113,
      "Cabin_Boy": 2114,
      "Canyon_C": 2115,
      "previous": 2116,
      "chell": 2117,
      "perfor": 2118,
      "s_Closet": 2119,
      "Walt": 2120,
      "superhero": 2121,
      "urns": 2122,
      "Awards": 2123,
      "adapted": 2124,
      "esponse": 2125,
      "Captain_Corelli": 2126,
      "Philipp": 2127,
      "Calvary_": 2128,
      "_and_the_Slav": 2129,
      "Caligula_": 2130,
      "6000": 2131,
      "5580": 2132,
      "andolin_": 2133,
      "Captain_Kidd_and_the_Slav": 2134,
      "Camino_": 2135,
      "Simon": 2136,
      "_Moore": 2137,
      "Captain_Thunder_": 2138,
      "Cageman": 2139,
      "dependent": 2140,
      "Calling_All_Curs": 2141,
      "usbands": 2142,
      "s_Mandolin_": 2143,
      "selected": 2144,
      "Canned_F": 2145,
      "Directed": 2146,
      "Mexican": 2147,
      "Caché": 2148,
      "ocalyp": 2149,
      "Foreign": 2150,
      "glish": 2151,
      "Can_This_Be_Dixie": 2152,
      "Cantinf": 2153,
      "Captain_of_Destiny": 2154,
      "_A_Five_Film": 2155,
      "utthroats": 2156,
      "California_Straight_Ahead": 2157,
      "Camille_Claudel_": 2158,
      "Call_of_the_Forest_": 2159,
      "Captain_Kidd_and_the_Slave_Girl": 2160,
      "10": 2161,
      "30": 2162,
      "5640": 2163,
      "Aaron": 2164,
      "Benn": 2165,
      "Bett": 2166,
      "Dom": 2167,
      "Dec": 2168,
      "Gil": 2169,
      "Ju": 2170,
      "Jay": 2171,
      "Jim": 2172,
      "June": 2173,
      "Jordan": 2174,
      "Ken": 2175,
      "Key": 2176,
      "Kenn": 2177,
      "Li": 2178,
      "Lo": 2179,
      "Lot": 2180,
      "Mik": 2181,
      "Ne": 2182,
      "Pri": 2183,
      "Parker": 2184,
      "Reg": 2185,
      "Shan": 2186,
      "Will": 2187,
      "Wood": 2188,
      "Yu": 2189,
      "_at": 2190,
      "ble": 2191,
      "back": 2192,
      "bau": 2193,
      "came": 2194,
      "cio_": 2195,
      "fel": 2196,
      "fri": 2197,
      "gh": 2198,
      "gel": 2199,
      "ime": 2200,
      "je": 2201,
      "lag": 2202,
      "suc": 2203,
      "spe": 2204,
      "tomic": 2205,
      "uori": 2206,
      "vi": 2207,
      "vs": 2208,
      "ywood": 2209,
      "én": 2210,
      "invol": 2211,
      "independent": 2212,
      "stile": 2213,
      "ings": 2214,
      "on_Par": 2215,
      "ork": 2216,
      "orm": 2217,
      "ories": 2218,
      "hel": 2219,
      "itchell": 2220,
      "anda": 2221,
      "ctor": 2222,
      "als": 2223,
      "thew": 2224,
      "the_B": 2225,
      "the_Sk": 2226,
      "llerb": 2227,
      "ros": 2228,
      "atti": 2229,
      "esqu": 2230,
      "in_the_Sk": 2231,
      "letto": 2232,
      "ucho": 2233,
      "y_H": 2234,
      "Captain_Abu": 2235,
      "Captain_Horatio": 2236,
      "olk": 2237,
      "_Society_": 2238,
      "irk": 2239,
      "merc": 2240,
      "ionati": 2241,
      "_Back": 2242,
      "Josh": 2243,
      "nifer": 2244,
      "_Files": 2245,
      "_A_Wedding": 2246,
      "_Hornblower": 2247,
      "_Husbands": 2248,
      "Mary": 2249,
      "aven": 2250,
      "avres": 2251,
      "over": 2252,
      "_Wh": 2253,
      "2003": 2254,
      "2006": 2255,
      "elle": 2256,
      "ige": 2257,
      "erself": 2258,
      "abo": 2259,
      "abel": 2260,
      "rap": 2261,
      "_Luck": 2262,
      "ever": 2263,
      "Caliber": 2264,
      "s_of_the": 2265,
      "s_on_Par": 2266,
      "aki": 2267,
      "1948": 2268,
      "_Re": 2269,
      "_Response": 2270,
      "eria": 2271,
      "Car_9": 2272,
      "Cadavres": 2273,
      "ot_": 2274,
      "1960_film": 2275,
      "1963_film": 2276,
      "opat": 2277,
      "1994": 2278,
      "1990_film": 2279,
      "1991_film": 2280,
      "qui": 2281,
      "Call_Me_M": 2282,
      "Call_Me_Claus": 2283,
      "_Rome": 2284,
      "_Young": 2285,
      "_No": 2286,
      "Arm": 2287,
      "Café_Society_": 2288,
      "Barry": 2289,
      "III": 2290,
      "Shir": 2291,
      "_Jones": 2292,
      "Calling_All_Husbands": 2293,
      "Cabin_in_the_Sk": 2294,
      "Cadets_on_Par": 2295,
      "offic": 2296,
      "Canadian_Bacon": 2297,
      "Lauren": 2298,
      "eroes": 2299,
      "3F_": 2300,
      "s_Cutthroats": 2301,
      "Calmi": 2302,
      "ctions": 2303,
      "iteers": 2304,
      "Paradis": 2305,
      "Kingdom": 2306,
      "Camping_2": 2307,
      "Calcutta_7": 2308,
      "Call_Girls_of": 2309,
      "Luis": 2310,
      "icolor": 2311,
      "Lewis": 2312,
      "Wilson": 2313,
      "Columb": 2314,
      "Caligula": 2315,
      "5280": 2316,
      "Gabriel": 2317,
      "rigan": 2318,
      "5820": 2319,
      "alongside": 2320,
      "ell_to": 2321,
      "Heart": 2322,
      "Came_the_B": 2323,
      "riday": 2324,
      "Call_It_Luck": 2325,
      "_Raed": 2326,
      "Raymond": 2327,
      "Captain_Careless": 2328,
      "score": 2329,
      "vaders": 2330,
      "antast": 2331,
      "animated": 2332,
      "ourtes": 2333,
      "Japanese": 2334,
      "Fernando": 2335,
      "Play": 2336,
      "theatric": 2337,
      "Jennifer": 2338,
      "fession": 2339,
      "louds": 2340,
      "Calvento_Files": 2341,
      "Mountain": 2342,
      "Returns": 2343,
      "passionati": 2344,
      "Algeria": 2345,
      "Caché_": 2346,
      "Cantinflas_": 2347,
      "friend": 2348,
      "llerbabes": 2349,
      "esquiteers": 2350,
      "Captain_Abu_Raed": 2351,
      "Captain_Horatio_Hornblower": 2352,
      "_A_Wedding_Story": 2353,
      "Car_99": 2354,
      "Cabin_in_the_Sky_": 2355,
      "Cadets_on_Parade": 2356,
      "Calcutta_71": 2357,
      "Call_Girls_of_Rome": 2358,
      "Columbia": 2359,
      "Came_the_Brawn": 2360,
      "01": 2361,
      "As": 2362,
      "Bl": 2363,
      "Bry": 2364,
      "Bwan": 2365,
      "Basil": 2366,
      "Corn": 2367,
      "Cries": 2368,
      "EO": 2369,
      "Hug": 2370,
      "Im": 2371,
      "Ir": 2372,
      "Jung": 2373,
      "Jason": 2374,
      "Kell": 2375,
      "Men": 2376,
      "Movie": 2377,
      "Mail": 2378,
      "On": 2379,
      "Oct": 2380,
      "Pan": 2381,
      "Passage": 2382,
      "Sa": 2383,
      "South": 2384,
      "Tal": 2385,
      "Tug": 2386,
      "Tai": 2387,
      "Tony": 2388,
      "Val": 2389,
      "VIII": 2390,
      "XVIII": 2391,
      "Young": 2392,
      "_2": 2393,
      "_Jam": 2394,
      "_54": 2395,
      "_13": 2396,
      "aine": 2397,
      "ban": 2398,
      "babu": 2399,
      "camp": 2400,
      "cinem": 2401,
      "dis": 2402,
      "del": 2403,
      "duc": 2404,
      "ethe": 2405,
      "fore": 2406,
      "g_": 2407,
      "gar": 2408,
      "gers": 2409,
      "i_": 2410,
      "iç": 2411,
      "ias": 2412,
      "i_F": 2413,
      "jo": 2414,
      "lel": 2415,
      "lio": 2416,
      "lie": 2417,
      "med": 2418,
      "mur": 2419,
      "nicolor": 2420,
      "ober": 2421,
      "pp": 2422,
      "plo": 2423,
      "uy_M": 2424,
      "val": 2425,
      "wagger": 2426,
      "ina_": 2427,
      "Caiç": 2428,
      "aria": 2429,
      "ils": 2430,
      "ste": 2431,
      "ing_": 2432,
      "rest": 2433,
      "real": 2434,
      "rece": 2435,
      "re_You": 2436,
      "ens": 2437,
      "enti": 2438,
      "e_da_": 2439,
      "ali": 2440,
      "Capern": 2441,
      "atho": 2442,
      "unter": 2443,
      "am_B": 2444,
      "elop": 2445,
      "ties_": 2446,
      "lez": 2447,
      "lett": 2448,
      "_Moun": 2449,
      "_Miller": 2450,
      "_Movie": 2451,
      "_My_D": 2452,
      "_Mabel": 2453,
      "Captain_Calamity_": 2454,
      "Captain_Underpants": 2455,
      "mem": 2456,
      "ola": 2457,
      "urton": 2458,
      "_Sav": 2459,
      "_Sam_B": 2460,
      "irate": 2461,
      "rian": 2462,
      "_Bro": 2463,
      "_Babes": 2464,
      "Joke": 2465,
      "_City": 2466,
      "_Clouds": 2467,
      "_Ferox": 2468,
      "_Atomic": 2469,
      "loos": 2470,
      "_He": 2471,
      "aved": 2472,
      "_Desert": 2473,
      "_the_F": 2474,
      "_the_Flesh": 2475,
      "ago": 2476,
      "ovan": 2477,
      "_Wher": 2478,
      "_Wait": 2479,
      "2005": 2480,
      "2002_film": 2481,
      "2003_film": 2482,
      "ells": 2483,
      "Strip": 2484,
      "ived": 2485,
      "ives": 2486,
      "Chann": 2487,
      "raj": 2488,
      "comed": 2489,
      "cow": 2490,
      "ichol": 2491,
      "s_Island": 2492,
      "Candlel": 2493,
      "Call_of_H": 2494,
      "Call_Jane": 2495,
      "_Ris": 2496,
      "_Tru": 2497,
      "rant": 2498,
      "1937": 2499,
      "1938": 2500,
      "aust": 2501,
      "Car_54": 2502,
      "Car_Babes": 2503,
      "Calling_Wild": 2504,
      "Cage_Without": 2505,
      "1968": 2506,
      "oph": 2507,
      "1992_film": 2508,
      "Captains_of_the": 2509,
      "angatho": 2510,
      "derwater": 2511,
      "ewell_to": 2512,
      "_Epic": 2513,
      "_Rollerbabes": 2514,
      "lyn": 2515,
      "1974": 2516,
      "1972_film": 2517,
      "1979_film": 2518,
      "Jane_and": 2519,
      "1952": 2520,
      "1953": 2521,
      "1950_film": 2522,
      "Cannibal_Ferox": 2523,
      "Cannibal_Rollerbabes": 2524,
      "Camera": 2525,
      "Cameram": 2526,
      "Camere_da_": 2527,
      "Captive_Women": 2528,
      "team": 2529,
      "Candy_Mountain": 2530,
      "Shy": 2531,
      "Cabaret_Paradis": 2532,
      "1914": 2533,
      "1917_film": 2534,
      "Calling_All_Marines": 2535,
      "Captain_Fantast": 2536,
      "Canyon_Am": 2537,
      "ecution": 2538,
      "aired": 2539,
      "e_Love_": 2540,
      "Cadet_Girl": 2541,
      "Canadian_Moun": 2542,
      "ence_": 2543,
      "Calendar_Girls": 2544,
      "Bruc": 2545,
      "Brad": 2546,
      "world": 2547,
      "Calm_Your": 2548,
      "Warner": 2549,
      "Calamity_Jane_and": 2550,
      "afari": 2551,
      "box": 2552,
      "feature_film": 2553,
      "Patric": 2554,
      "Patrick": 2555,
      "inal_Jam": 2556,
      "_a_Key": 2557,
      "moon": 2558,
      "_The_Final_Jam": 2559,
      "_Underwater": 2560,
      "Caesar_and_Cle": 2561,
      "Camping_3": 2562,
      "Camelot_": 2563,
      "Steve": 2564,
      "Cain_and_Mabel": 2565,
      "_and_the_Underwater": 2566,
      "urtis": 2567,
      "_The_First_Epic": 2568,
      "777": 2569,
      "escu": 2570,
      "appearance": 2571,
      "5880": 2572,
      "unicul": 2573,
      "unicula": 2574,
      "Anthon": 2575,
      "Anthony": 2576,
      "_Martin": 2577,
      "_Farewell_to": 2578,
      "Camp_Rock_2": 2579,
      "Jacqu": 2580,
      "Matthew": 2581,
      "t_Buy_M": 2582,
      "Captain_Nemo": 2583,
      "4980": 2584,
      "foot": 2585,
      "Captain_Midnight_": 2586,
      "1926_feature_film": 2587,
      "Typewriter": 2588,
      "Australian": 2589,
      "Virgin": 2590,
      "family": 2591,
      "composed": 2592,
      "nominated": 2593,
      "November": 2594,
      "Susan": 2595,
      "oneymoon": 2596,
      "a_de_Vac": 2597,
      "Antonio": 2598,
      "_Invaders": 2599,
      "e_Are_You": 2600,
      "agarjun": 2601,
      "Cabeza_de_Vac": 2602,
      "osmos": 2603,
      "ocalypse": 2604,
      "December": 2605,
      "Caliber_9": 2606,
      "opatra_": 2607,
      "ourtesy": 2608,
      "Bwana": 2609,
      "Capernaum": 2610,
      "ties_vs": 2611,
      "_My_Dog": 2612,
      "_Sam_Bass": 2613,
      "_Atomic_Invaders": 2614,
      "loosely": 2615,
      "_Where_Are_You": 2616,
      "_Waiting": 2617,
      "Channel": 2618,
      "Candlelight": 2619,
      "Call_of_Heroes": 2620,
      "Calling_Wild_Bill_Elliott": 2621,
      "Cage_Without_a_Key": 2622,
      "Captains_of_the_Clouds": 2623,
      "Camere_da_letto": 2624,
      "Captain_Fantastic_": 2625,
      "Canyon_Ambush": 2626,
      "Canadian_Mounties_vs": 2627,
      "Calm_Yourself": 2628,
      "Calamity_Jane_and_Sam_Bass": 2629,
      "Caesar_and_Cleopatra_": 2630,
      "_and_the_Underwater_City": 2631,
      "_The_First_Epic_Movie": 2632,
      "_Farewell_to_the_Flesh": 2633,
      "t_Buy_Me_Love_": 2634,
      "Captain_Nemo_and_the_Underwater_City": 2635,
      "\",": 2636,
      "63": 2637,
      "Ash": 2638,
      "Bel": 2639,
      "Bart": 2640,
      "Cent": 2641,
      "Coll": 2642,
      "Dum": 2643,
      "Deb": 2644,
      "Eric": 2645,
      "Kr": 2646,
      "Ker": 2647,
      "Lam": 2648,
      "Lind": 2649,
      "Mack": 2650,
      "Need": 2651,
      "Pol": 2652,
      "Press": 2653,
      "Roman": 2654,
      "Ryan": 2655,
      "Russell": 2656,
      "San": 2657,
      "Sto": 2658,
      "Sid": 2659,
      "To": 2660,
      "Tan": 2661,
      "Tor": 2662,
      "Tech": 2663,
      "Went": 2664,
      "XX": 2665,
      "_in_": 2666,
      "_Joe": 2667,
      "bas": 2668,
      "bur": 2669,
      "black": 2670,
      "brand": 2671,
      "call": 2672,
      "den": 2673,
      "des": 2674,
      "fle": 2675,
      "fran": 2676,
      "girl": 2677,
      "hy": 2678,
      "hard": 2679,
      "have": 2680,
      "ka": 2681,
      "kill": 2682,
      "kins": 2683,
      "la_": 2684,
      "lim": 2685,
      "lier": 2686,
      "na": 2687,
      "nold": 2688,
      "oon": 2689,
      "ota": 2690,
      "pt": 2691,
      "pson": 2692,
      "phere": 2693,
      "pole": 2694,
      "ré": 2695,
      "rin": 2696,
      "ser": 2697,
      "she": 2698,
      "ty": 2699,
      "told": 2700,
      "uja": 2701,
      "var": 2702,
      "western": 2703,
      "yllis": 2704,
      "ález": 2705,
      "és": 2706,
      "iness": 2707,
      "Cait": 2708,
      "around": 2709,
      "reg": 2710,
      "reed": 2711,
      "onog": 2712,
      "ora": 2713,
      "hes": 2714,
      "ito": 2715,
      "enberg": 2716,
      "andy": 2717,
      "asco": 2718,
      "e_777": 2719,
      "allo": 2720,
      "atic": 2721,
      "ature": 2722,
      "ather": 2723,
      "ative": 2724,
      "ataway": 2725,
      "amond": 2726,
      "eli": 2727,
      "elp": 2728,
      "Can_W": 2729,
      "Cansu": 2730,
      "a_Joke": 2731,
      "let": 2732,
      "y_K": 2733,
      "_Mac": 2734,
      "_Mast": 2735,
      "_Mail": 2736,
      "_Mesquiteers": 2737,
      "Captain_from": 2738,
      "Captain_EO": 2739,
      "olf": 2740,
      "Calle_": 2741,
      "Call_the": 2742,
      "ad_": 2743,
      "ado": 2744,
      "urv": 2745,
      "_Se": 2746,
      "_Ston": 2747,
      "etwork": 2748,
      "aylor": 2749,
      "_Br": 2750,
      "_Banks": 2751,
      "Rod": 2752,
      "Roy": 2753,
      "mans": 2754,
      "_Cuori": 2755,
      "_Cosmos": 2756,
      "_Fle": 2757,
      "_Friday": 2758,
      "iday": 2759,
      "2011_film": 2760,
      "loc": 2761,
      "love": 2762,
      "_Har": 2763,
      "Mara": 2764,
      "Marco": 2765,
      "Campbell": 2766,
      "ard_": 2767,
      "_Go": 2768,
      "_Gordon": 2769,
      "_Gillespie": 2770,
      "_the_Marines": 2771,
      "cholog": 2772,
      "again": 2773,
      "ut_the_Marines": 2774,
      "ular": 2775,
      "_Wall": 2776,
      "2001": 2777,
      "2004": 2778,
      "iver_": 2779,
      "able": 2780,
      "tenient": 2781,
      "Cabob": 2782,
      "_Pas": 2783,
      "_Passage": 2784,
      "raig": 2785,
      "sey": 2786,
      "company": 2787,
      "new": 2788,
      "allment": 2789,
      "_Liv": 2790,
      "_Lew": 2791,
      "Angel": 2792,
      "herit": 2793,
      "osing": 2794,
      "osphere": 2795,
      "Johnson": 2796,
      "s_Returns": 2797,
      "ief": 2798,
      "iew": 2799,
      "Call_North": 2800,
      "1946": 2801,
      "Cafe": 2802,
      "Cafe_F": 2803,
      "_TV_series": 2804,
      "_Time": 2805,
      "1930": 2806,
      "1939": 2807,
      "1930_film": 2808,
      "ations": 2809,
      "Carroll": 2810,
      "Cadence_": 2811,
      "scrip": 2812,
      "ocaust": 2813,
      "ot_Friday": 2814,
      "arty": 2815,
      "Cage_of": 2816,
      "1963": 2817,
      "1998": 2818,
      "Captivity_": 2819,
      "1980": 2820,
      "1988": 2821,
      "1987_film": 2822,
      "1989_film": 2823,
      "early": 2824,
      "1921_film": 2825,
      "Call_Me_Bwana": 2826,
      "before": 2827,
      "_Road_": 2828,
      "Camille_2000": 2829,
      "Cannot": 2830,
      "Franco": 2831,
      "arks": 2832,
      "plays": 2833,
      "played": 2834,
      "Dave_": 2835,
      "1979": 2836,
      "1975_film": 2837,
      "Cannibal_Ap": 2838,
      "Cannibal_Girls": 2839,
      "ists": 2840,
      "Capriccio_": 2841,
      "Captive_Wild": 2842,
      "Captive_State": 2843,
      "Captive_Heart": 2844,
      "ightfoot": 2845,
      "Candy_Strip": 2846,
      "Michael_Moore": 2847,
      "1915": 2848,
      "Calling_All_Kid": 2849,
      "Cairo_Time": 2850,
      "Cairo_Road_": 2851,
      "ostess": 2852,
      "Canyon_Passage": 2853,
      "Phyllis": 2854,
      "oyle": 2855,
      "chez": 2856,
      "Camping_Cosmos": 2857,
      "class": 2858,
      "Allen": 2859,
      "Calmos": 2860,
      "Warren": 2861,
      "ductions": 2862,
      "weethe": 2863,
      "Cain_XVIII": 2864,
      "Berlin": 2865,
      "_a_Lot": 2866,
      "Cannonball_": 2867,
      "Bros": 2868,
      "Captain_Swagger": 2869,
      "ough": 2870,
      "Calcutta_Mail": 2871,
      "lanco": 2872,
      "Barbara_": 2873,
      "Enri": 2874,
      "English": 2875,
      "Moore": 2876,
      "Capone_Cries": 2877,
      "ummer_Camp": 2878,
      "Captain_Courtesy": 2879,
      "Madam": 2880,
      "s_Summer_Camp": 2881,
      "Tony_": 2882,
      "_Castile": 2883,
      "Alexand": 2884,
      "Henry": 2885,
      "Came_a_H": 2886,
      "_Appassionati": 2887,
      "6120": 2888,
      "6180": 2889,
      "6420": 2890,
      "ttack": 2891,
      "e_Take_": 2892,
      "experi": 2893,
      "Captured_": 2894,
      "Calypso_Joe": 2895,
      "ánchez": 2896,
      "Canvas_": 2897,
      "Cappy_Ricks": 2898,
      "Cappy_Ricks_Returns": 2899,
      "Captain_Lash": 2900,
      "Hollywood": 2901,
      "Vincent": 2902,
      "group": 2903,
      "side_777": 2904,
      "onzález": 2905,
      "original": 2906,
      "_Rambabu": 2907,
      "polit": 2908,
      "Captain_Apache": 2909,
      "etropole": 2910,
      "Call_Out_the_Marines": 2911,
      "California_Dreamin": 2912,
      "Peck": 2913,
      "ratosphere": 2914,
      "biographical": 2915,
      "Fabien": 2916,
      "5040": 2917,
      "Dennis": 2918,
      "named": 2919,
      "psycholog": 2920,
      "installment": 2921,
      "an_Gangatho": 2922,
      "chinos": 2923,
      "olkonog": 2924,
      "Armand": 2925,
      "Calmi_Cuori": 2926,
      "October": 2927,
      "i_Funicula": 2928,
      "murder": 2929,
      "plot": 2930,
      "Caiçara_": 2931,
      "received": 2932,
      "comedian": 2933,
      "Cameraman_Gangatho": 2934,
      "uniculi_Funicula": 2935,
      "Cabeza_de_Vaca_": 2936,
      "Candlelight_in_": 2937,
      "Needle": 2938,
      "Technicolor": 2939,
      "Can_We_Take_": 2940,
      "Captain_from_Castile": 2941,
      "Call_the_Mesquiteers": 2942,
      "against": 2943,
      "teniente": 2944,
      "Caboblanco": 2945,
      "Call_Northside_777": 2946,
      "Cafe_Funiculi_Funicula": 2947,
      "script": 2948,
      "Cage_of_Gold": 2949,
      "Cannibal_Apocalypse": 2950,
      "Captive_Wild_Woman": 2951,
      "Captive_Hearts_": 2952,
      "Calling_All_Kids": 2953,
      "weetheart": 2954,
      "Capone_Cries_a_Lot": 2955,
      "s_Summer_Camp_Massacre": 2956,
      "Came_a_Hot_Friday": 2957,
      "olkonogov": 2958,
      "Calmi_Cuori_Appassionati": 2959,
      "Cameraman_Gangatho_Rambabu": 2960,
      "Candlelight_in_Algeria": 2961,
      "Can_We_Take_a_Joke": 2962,
      "\".": 2963,
      "04": 2964,
      "14": 2965,
      "29": 2966,
      "37": 2967,
      "39": 2968,
      "380": 2969,
      "440": 2970,
      "Ag": 2971,
      "Bu": 2972,
      "Baker": 2973,
      "Cost": 2974,
      "City": 2975,
      "Comic": 2976,
      "Cinem": 2977,
      "Du": 2978,
      "Der": 2979,
      "Den": 2980,
      "Dev": 2981,
      "Dust": 2982,
      "Eug": 2983,
      "First": 2984,
      "Frac": 2985,
      "Flor": 2986,
      "Gar": 2987,
      "Gau": 2988,
      "Gang": 2989,
      "Ha": 2990,
      "Han": 2991,
      "Hol": 2992,
      "Ian": 2993,
      "Jes": 2994,
      "Jun": 2995,
      "Kal": 2996,
      "Kath": 2997,
      "Kildare": 2998,
      "Lis": 2999,
      "Lore": 3000,
      "Lang": 3001,
      "My": 3002,
      "Mic": 3003,
      "Mus": 3004,
      "Miller": 3005,
      "National": 3006,
      "Nichol": 3007,
      "Our": 3008,
      "Poll": 3009,
      "Ren": 3010,
      "Rew": 3011,
      "Rud": 3012,
      "Ruth": 3013,
      "Sar": 3014,
      "Sand": 3015,
      "Sol": 3016,
      "Tel": 3017,
      "Tur": 3018,
      "Um": 3019,
      "Uni": 3020,
      "Viv": 3021,
      "York": 3022,
      "Zac": 3023,
      "_de_": 3024,
      "_Canyon": 3025,
      "bb": 3026,
      "both": 3027,
      "bolt": 3028,
      "cho": 3029,
      "dent": 3030,
      "dev": 3031,
      "fire": 3032,
      "fils": 3033,
      "gr": 3034,
      "hu": 3035,
      "har": 3036,
      "hol": 3037,
      "ied": 3038,
      "ji": 3039,
      "jam": 3040,
      "jack": 3041,
      "key": 3042,
      "line": 3043,
      "light": 3044,
      "mod": 3045,
      "millon": 3046,
      "mucho": 3047,
      "non": 3048,
      "oj": 3049,
      "pop": 3050,
      "sa": 3051,
      "sl": 3052,
      "s_D": 3053,
      "ual": 3054,
      "vo": 3055,
      "vation_": 3056,
      "view": 3057,
      "win": 3058,
      "wyn": 3059,
      "xecution": 3060,
      "ye_of": 3061,
      "za": 3062,
      "zabeth": 3063,
      "ão": 3064,
      "ée": 3065,
      "inson": 3066,
      "inald": 3067,
      "inally": 3068,
      "Cass": 3069,
      "Caution": 3070,
      "any": 3071,
      "ilar": 3072,
      "ilor": 3073,
      "stro": 3074,
      "stick": 3075,
      "rez": 3076,
      "remake": 3077,
      "ory_": 3078,
      "ital": 3079,
      "itter": 3080,
      "eder": 3081,
      "ening": 3082,
      "ala": 3083,
      "al_C": 3084,
      "alvation_": 3085,
      "roads": 3086,
      "Capcan": 3087,
      "aty": 3088,
      "ator": 3089,
      "by_B": 3090,
      "by_the": 3091,
      "tag": 3092,
      "els": 3093,
      "Canon": 3094,
      "Canton": 3095,
      "Can_E": 3096,
      "Can_You": 3097,
      "Canastr": 3098,
      "a_C": 3099,
      "a_of_H": 3100,
      "a_merc": 3101,
      "ucha": 3102,
      "Cam_": 3103,
      "Camorr": 3104,
      "_Mary": 3105,
      "Captain_of_the": 3106,
      "Captain_Ron": 3107,
      "Captain_Phillip": 3108,
      "Captain_Eddie": 3109,
      "met": 3110,
      "directorial": 3111,
      "Callow": 3112,
      "Callaw": 3113,
      "adent": 3114,
      "ural": 3115,
      "_Sp": 3116,
      "_Sal": 3117,
      "_Sag": 3118,
      "_Summer": 3119,
      "_Singing": 3120,
      "iria": 3121,
      "thers": 3122,
      "through": 3123,
      "three": 3124,
      "_Be": 3125,
      "_Benn": 3126,
      "_Be_S": 3127,
      "ent_Z": 3128,
      "entered": 3129,
      "Rose": 3130,
      "Roger": 3131,
      "_Co": 3132,
      "_Code": 3133,
      "hots": 3134,
      "hosts": 3135,
      "2017_film": 3136,
      "_Attack": 3137,
      "_Her": 3138,
      "_Hen": 3139,
      "_Hell": 3140,
      "_Honeymoon": 3141,
      "Marg": 3142,
      "Maril": 3143,
      "Marion": 3144,
      "Camp_Saw": 3145,
      "aver": 3146,
      "_Der": 3147,
      "_Dav": 3148,
      "_Dec": 3149,
      "_Dere": 3150,
      "_the_E": 3151,
      "chang": 3152,
      "utt": 3153,
      "_Wave": 3154,
      "ella": 3155,
      "Stewart": 3156,
      "ive_M": 3157,
      "Chuck": 3158,
      "Cabiria": 3159,
      "_Pati": 3160,
      "sever": 3161,
      "_Lake": 3162,
      "oscow": 3163,
      "Calimucho": 3164,
      "s_Kingdom": 3165,
      "owhere": 3166,
      "1945": 3167,
      "1944_film": 3168,
      "aped": 3169,
      "aperson": 3170,
      "_Rush": 3171,
      "_Ryan": 3172,
      "Cafe_H": 3173,
      "_King": 3174,
      "_Tak": 3175,
      "ship": 3176,
      "Carl": 3177,
      "Cars": 3178,
      "Caddie_": 3179,
      "plage": 3180,
      "scaped": 3181,
      "of_the_St": 3182,
      "California_Gold": 3183,
      "California_Joe_": 3184,
      "California_Mail": 3185,
      "California_Typewriter": 3186,
      "Cagef": 3187,
      "Caglio": 3188,
      "1960": 3189,
      "ople": 3190,
      "1995": 3191,
      "1999": 3192,
      "1995_film": 3193,
      "dec": 3194,
      "quet": 3195,
      "ishing": 3196,
      "1982": 3197,
      "1987": 3198,
      "1986_film": 3199,
      "1982_film": 3200,
      "ugu": 3201,
      "_Ever_Forg": 3202,
      "1925_film": 3203,
      "Call_Me_Madam": 3204,
      "_The_Sag": 3205,
      "renc": 3206,
      "phan": 3207,
      "_Stand": 3208,
      "ageous": 3209,
      "award": 3210,
      "ourageous": 3211,
      "Call_of_the_Canyon": 3212,
      "France": 3213,
      "Davis": 3214,
      "1976": 3215,
      "contr": 3216,
      "han_": 3217,
      "Cannibal_Hol": 3218,
      "Cannibal_Attack": 3219,
      "ffer": 3220,
      "Cameraperson": 3221,
      "Capricho": 3222,
      "Caged_Heat": 3223,
      "teen": 3224,
      "Williams": 3225,
      "ebast": 3226,
      "peed": 3227,
      "1913": 3228,
      "er_of_the_St": 3229,
      "Captain_Fury": 3230,
      "Cabin_by_the": 3231,
      "Campus_Man": 3232,
      "Campus_Code": 3233,
      "Campus_Honeymoon": 3234,
      "cheming": 3235,
      "e_He": 3236,
      "ences": 3237,
      "5460": 3238,
      "ukon": 3239,
      "ay_Went": 3240,
      "wanberg": 3241,
      "Conan": 3242,
      "Conquest": 3243,
      "Abel": 3244,
      "featured": 3245,
      "_a_Day": 3246,
      "_a_Needle": 3247,
      "eidi": 3248,
      "portray": 3249,
      "Brown": 3250,
      "Golden": 3251,
      "irebrand": 3252,
      "Captain_Salvation_": 3253,
      "_Thataway": 3254,
      "orses": 3255,
      "a_Suja": 3256,
      "Camel_Through": 3257,
      "ized": 3258,
      "rontier": 3259,
      "version": 3260,
      "omicide": 3261,
      "German": 3262,
      "noir": 3263,
      "uller": 3264,
      "rossroads": 3265,
      "mings": 3266,
      "s_Sweetheart": 3267,
      "Giovan": 3268,
      "Cabin_Fever": 3269,
      "Café_de_Flo": 3270,
      "Café_de_chinos": 3271,
      "Kevin": 3272,
      "Maur": 3273,
      "2019_film": 3274,
      "ology": 3275,
      "Cadillac_Man": 3276,
      "5160": 3277,
      "Milton": 3278,
      "t_Help": 3279,
      "5520": 3280,
      "Cafe_Metropole": 3281,
      "Captain_Kidd_": 3282,
      "Produc": 3283,
      "Productions": 3284,
      "leng": 3285,
      "Call_It_a_Day": 3286,
      "explo": 3287,
      "Calypso_Heat": 3288,
      "Elizabeth": 3289,
      "ighter": 3290,
      "e_Without_You": 3291,
      "film_director": 3292,
      "Captain_Lightfoot": 3293,
      "Francis": 3294,
      "radine": 3295,
      "llen_Be_S": 3296,
      "Captain_Video": 3297,
      "Capturing_Mary": 3298,
      "Khal": 3299,
      "takes": 3300,
      "Call_of_the_Sea": 3301,
      "Dorothy": 3302,
      "Cannery_Rodent": 3303,
      "Venice": 3304,
      "_Guard_": 3305,
      "enarilor": 3306,
      "California_Straight_Ahead_": 3307,
      "Gilbert": 3308,
      "Juan": 3309,
      "Reginald": 3310,
      "success": 3311,
      "én_": 3312,
      "Paradiso": 3313,
      "theatrical": 3314,
      "Tugboat": 3315,
      "_Savage": 3316,
      "Jacques": 3317,
      "Capernaum_": 3318,
      "Century": 3319,
      "Dumas": 3320,
      "called": 3321,
      "ascot": 3322,
      "Cansu_Dere": 3323,
      "_Master_of_the_St": 3324,
      "urviving": 3325,
      "_Live_Without_You": 3326,
      "_Lewis": 3327,
      "Cannot_Live_Without_You": 3328,
      "Dave_Campfield": 3329,
      "Alexandre": 3330,
      "psychological": 3331,
      "Comics": 3332,
      "Eugen": 3333,
      "Fracasse": 3334,
      "Rewinds": 3335,
      "Umberto": 3336,
      "Univers": 3337,
      "develop": 3338,
      "millonaria": 3339,
      "ye_of_a_Needle": 3340,
      "Capcana_merc": 3341,
      "Can_Ellen_Be_S": 3342,
      "Can_You_Ever_Forg": 3343,
      "Canastra_Suja": 3344,
      "a_of_Hal_C": 3345,
      "Camorra_": 3346,
      "Captain_of_the_Guard_": 3347,
      "Captain_Phillips_": 3348,
      "Calloway": 3349,
      "Callaway_Went": 3350,
      "adentro": 3351,
      "ent_Zero": 3352,
      "Camp_Sawi": 3353,
      "_the_Eye_of_a_Needle": 3354,
      "ive_Me": 3355,
      "_Patient_Zero": 3356,
      "_Rush_": 3357,
      "Cafe_Hostess": 3358,
      "California_Gold_Rush_": 3359,
      "Cagefighter": 3360,
      "Cagliostro": 3361,
      "Call_Me_Madam_": 3362,
      "_The_Saga_of_Hal_C": 3363,
      "Cannibal_Holocaust": 3364,
      "Cabin_by_the_Lake": 3365,
      "Camel_Through_the_Eye_of_a_Needle": 3366,
      "Giovanni": 3367,
      "Café_de_Flore_": 3368,
      "t_Help_Singing": 3369,
      "Calypso_Heat_Wave": 3370,
      "_Master_of_the_Stratosphere": 3371,
      "Capcana_mercenarilor": 3372,
      "Can_Ellen_Be_Saved": 3373,
      "Can_You_Ever_Forgive_Me": 3374,
      "Callaway_Went_Thataway": 3375,
      ".,": 3376,
      "02": 3377,
      "03": 3378,
      "17": 3379,
      "24": 3380,
      "25": 3381,
      "240": 3382,
      "3600": 3383,
      "47": 3384,
      "4200": 3385,
      "560": 3386,
      "660": 3387,
      "6300": 3388,
      "7200": 3389,
      "Ay": 3390,
      "Aub": 3391,
      "Ba": 3392,
      "Brun": 3393,
      "Bren": 3394,
      "Cec": 3395,
      "Code": 3396,
      "Curtis": 3397,
      "DV": 3398,
      "Dow": 3399,
      "Dame": 3400,
      "Ear": 3401,
      "Ellen": 3402,
      "Fer": 3403,
      "Foster": 3404,
      "Gas": 3405,
      "Gri": 3406,
      "Gail": 3407,
      "Glor": 3408,
      "Hop": 3409,
      "Ivan": 3410,
      "Just": 3411,
      "Jitter": 3412,
      "Krist": 3413,
      "Lag": 3414,
      "Law": 3415,
      "Lester": 3416,
      "Mir": 3417,
      "Mag": 3418,
      "Mont": 3419,
      "Midnight": 3420,
      "Nad": 3421,
      "Nig": 3422,
      "Orig": 3423,
      "Pen": 3424,
      "Pines": 3425,
      "Pirate": 3426,
      "Res": 3427,
      "Rus": 3428,
      "Roland": 3429,
      "Sm": 3430,
      "Sw": 3431,
      "Sor": 3432,
      "Sebast": 3433,
      "TV": 3434,
      "US": 3435,
      "You": 3436,
      "Yvon": 3437,
      "_It": 3438,
      "_with": 3439,
      "_Calloway": 3440,
      "aim": 3441,
      "bu": 3442,
      "bie": 3443,
      "bug": 3444,
      "car": 3445,
      "cel": 3446,
      "crit": 3447,
      "cur": 3448,
      "cap": 3449,
      "do": 3450,
      "day": 3451,
      "ee": 3452,
      "gram": 3453,
      "gang": 3454,
      "gatti": 3455,
      "ix": 3456,
      "ić": 3457,
      "ired": 3458,
      "lin_": 3459,
      "l_F": 3460,
      "ma_": 3461,
      "mom": 3462,
      "mour": 3463,
      "mund": 3464,
      "nu": 3465,
      "pict": 3466,
      "rong": 3467,
      "sat": 3468,
      "sel": 3469,
      "siè": 3470,
      "tti": 3471,
      "tra": 3472,
      "tells": 3473,
      "t_Stand": 3474,
      "uom": 3475,
      "uart": 3476,
      "vis": 3477,
      "wro": 3478,
      "wick": 3479,
      "yatt": 3480,
      "ze": 3481,
      "ér": 3482,
      "éli": 3483,
      "éoph": 3484,
      "Cather": 3485,
      "arías": 3486,
      "ana": 3487,
      "anth": 3488,
      "rett": 3489,
      "onso": 3490,
      "or_B": 3491,
      "edro": 3492,
      "edou": 3493,
      "isabeth": 3494,
      "e_gatti": 3495,
      "Capri": 3496,
      "ata": 3497,
      "atta": 3498,
      "in_E": 3499,
      "in_Paradiso": 3500,
      "Cani_": 3501,
      "a_N": 3502,
      "a_qui": 3503,
      "a_adentro": 3504,
      "tiki": 3505,
      "20th": 3506,
      "ucas": 3507,
      "Cama_adentro": 3508,
      "y_millonaria": 3509,
      "Captain_Barb": 3510,
      "Captain_Caution": 3511,
      "oldb": 3512,
      "Called": 3513,
      "Call_Her": 3514,
      "Caltiki": 3515,
      "_Safari": 3516,
      "_Shots": 3517,
      "_Surviving": 3518,
      "acif": 3519,
      "etti": 3520,
      "use": 3521,
      "ird": 3522,
      "irony": 3523,
      "thor": 3524,
      "rib": 3525,
      "ione": 3526,
      "_Ber": 3527,
      "_Bart": 3528,
      "tore": 3529,
      "tool": 3530,
      "Rogers": 3531,
      "_Cor": 3532,
      "_Flow": 3533,
      "iders": 3534,
      "_Al": 3535,
      "_Ar": 3536,
      "lost": 3537,
      "_Hay": 3538,
      "_Horses": 3539,
      "_Homicide": 3540,
      "Maria_": 3541,
      "Camp_N": 3542,
      "Campfire": 3543,
      "Camp_Hell": 3544,
      "_Gar": 3545,
      "_Graff": 3546,
      "_Ghosts": 3547,
      "_Don": 3548,
      "_the_Pol": 3549,
      "aga": 3550,
      "ute": 3551,
      "uty": 3552,
      "_World": 3553,
      "abor": 3554,
      "Chase": 3555,
      "Cab_Calloway": 3556,
      "_Pa": 3557,
      "raham": 3558,
      "sex": 3559,
      "comm": 3560,
      "comes": 3561,
      "all_": 3562,
      "_Lov": 3563,
      "_Losing": 3564,
      "herman": 3565,
      "John_S": 3566,
      "1944": 3567,
      "1942_film": 3568,
      "_Raj": 3569,
      "Cafund": 3570,
      "_Ko": 3571,
      "_Ker": 3572,
      "rank": 3573,
      "1937_film": 3574,
      "1939_film": 3575,
      "au_": 3576,
      "actors": 3577,
      "Cada_qui": 3578,
      "scar": 3579,
      "scen": 3580,
      "ocah": 3581,
      "ott": 3582,
      "Calling_Homicide": 3583,
      "California_Girl": 3584,
      "California_Passage": 3585,
      "California_or_B": 3586,
      "1967_film": 3587,
      "optim": 3588,
      "1990": 3589,
      "1992": 3590,
      "1993": 3591,
      "1996": 3592,
      "Captains_C": 3593,
      "erner": 3594,
      "1984": 3595,
      "1985": 3596,
      "1986": 3597,
      "_Escaped": 3598,
      "1927": 3599,
      "Camilla_": 3600,
      "became": 3601,
      "_The_Un": 3602,
      "_Star": 3603,
      "Camille_Rewinds": 3604,
      "awn": 3605,
      "ortal": 3606,
      "Call_of_the_Y": 3607,
      "Call_of_the_I": 3608,
      "Call_of_the_Wild": 3609,
      "Roberts": 3610,
      "_Nine": 3611,
      "playing": 3612,
      "1977": 3613,
      "ograph": 3614,
      "ollide": 3615,
      "ffith": 3616,
      "Camera_S": 3617,
      "ister_": 3618,
      "Café_Der": 3619,
      "Capricious": 3620,
      "4020": 3621,
      "Théoph": 3622,
      "white": 3623,
      "lif": 3624,
      "featuring": 3625,
      "e_May": 3626,
      "screened": 3627,
      "Calling_All_Car": 3628,
      "Cairo_Dec": 3629,
      "trav": 3630,
      "true": 3631,
      "o_de_": 3632,
      "o_Van": 3633,
      "o_Zac": 3634,
      "Camila_": 3635,
      "office": 3636,
      "insp": 3637,
      "Laura": 3638,
      "Calendar_Girls_": 3639,
      "Elisabeth": 3640,
      "ukor": 3641,
      "s_Crime": 3642,
      "s_Collide": 3643,
      "Calm_with": 3644,
      "issa_": 3645,
      "Caged_in_Paradiso": 3646,
      "ontas": 3647,
      "Girls": 3648,
      "Samuel": 3649,
      "idden": 3650,
      "appiness": 3651,
      "1848": 3652,
      "book": 3653,
      "Isab": 3654,
      "mozz": 3655,
      "ancer": 3656,
      "2021": 3657,
      "2022_film": 3658,
      "Captain_Sánchez": 3659,
      "Juliet": 3660,
      "_Thom": 3661,
      "Captain_Khan_": 3662,
      "Claude_": 3663,
      "Calcutta_": 3664,
      "Fever": 3665,
      "Guaty": 3666,
      "effect": 3667,
      "su_l": 3668,
      "a_Speed": 3669,
      "Camel_Safari": 3670,
      "Barbara": 3671,
      "Louise": 3672,
      "shown": 3673,
      "premiere": 3674,
      "verso": 3675,
      "bertooth": 3676,
      "udio": 3677,
      "compet": 3678,
      "Cactus_Flow": 3679,
      "Calvai": 3680,
      "leading": 3681,
      "Camp_X": 3682,
      "urses": 3683,
      "California_Solo": 3684,
      "California_Scheming": 3685,
      "Café_de_la_": 3686,
      "Tonight": 3687,
      "formed": 3688,
      "Candles_at": 3689,
      "Jerry": 3690,
      "2011_TV_series": 3691,
      "owertool": 3692,
      "Cafe_Mascot": 3693,
      "Calling_the_Shots": 3694,
      "Calling_the_Ghosts": 3695,
      "6480": 3696,
      "created": 3697,
      "Jacob": 3698,
      "Jessic": 3699,
      "Captain_Carey": 3700,
      "Forrest": 3701,
      "Human": 3702,
      "t_Be_He": 3703,
      "film_producer": 3704,
      "Captain_Nagarjun": 3705,
      "laration_": 3706,
      "sidered": 3707,
      "Tamil": 3708,
      "plejack": 3709,
      "rasad": 3710,
      "Captain_Volkonogov": 3711,
      "Carlos": 3712,
      "Gregory": 3713,
      "7020": 3714,
      "Capulina_Speed": 3715,
      "California_Firebrand": 3716,
      "Connor": 3717,
      "mmortal": 3718,
      "sa_y_millonaria": 3719,
      "Carol": 3720,
      "y_González": 3721,
      "Canyon_Crossroads": 3722,
      "previously": 3723,
      "Canned_Fishing": 3724,
      "ject": 3725,
      "Call_Me_Mister_": 3726,
      "Shirley_": 3727,
      "official": 3728,
      "Bryan": 3729,
      "Irving": 3730,
      "Lamar": 3731,
      "Pressure": 3732,
      "told_Story": 3733,
      "political": 3734,
      "3780": 3735,
      "human": 3736,
      "several": 3737,
      "ourageous_": 3738,
      "Caprichosa_y_millonaria": 3739,
      "Produced": 3740,
      "Khaled": 3741,
      "én_su_l": 3742,
      "Aubrey_": 3743,
      "Cecil": 3744,
      "Jitterbug": 3745,
      "Laglen": 3746,
      "momias": 3747,
      "picture": 3748,
      "siècle": 3749,
      "t_Stand_Losing": 3750,
      "wrote": 3751,
      "élias": 3752,
      "Cani_e_gatti": 3753,
      "Captain_Barbell_": 3754,
      "Call_Her_Savage": 3755,
      "_Surviving_the_Pol": 3756,
      "ironymus": 3757,
      "Camp_Nowhere": 3758,
      "_Worlds_Collide": 3759,
      "Cafundó": 3760,
      "Cada_quién_su_l": 3761,
      "ocahontas": 3762,
      "California_Girls_": 3763,
      "California_or_Bust": 3764,
      "Captains_Courageous_": 3765,
      "_The_Untold_Story": 3766,
      "Call_of_the_Yukon": 3767,
      "Call_of_the_Ice": 3768,
      "Call_of_the_Wild_": 3769,
      "Camera_Store": 3770,
      "Café_Derby": 3771,
      "Calling_All_Cars_": 3772,
      "Cairo_Declaration_": 3773,
      "Calm_with_Horses": 3774,
      "mozze": 3775,
      "Cactus_Flower_": 3776,
      "Café_de_la_plage": 3777,
      "Candles_at_Nine": 3778,
      "t_Be_Heaven": 3779,
      "Captain_Volkonogov_Escaped": 3780,
      "Capulina_Speedy_González": 3781,
      "t_Stand_Losing_You": 3782,
      "_Surviving_the_Police": 3783,
      "Cada_quién_su_lucha": 3784,
      "07": 3785,
      "08": 3786,
      "1st": 3787,
      "27": 3788,
      "59": 3789,
      "78": 3790,
      "7440": 3791,
      "840": 3792,
      "At": 3793,
      "BS": 3794,
      "Bod": 3795,
      "Bow": 3796,
      "Beat": 3797,
      "Braz": 3798,
      "Bacon": 3799,
      "Buff": 3800,
      "Cle": 3801,
      "Cho": 3802,
      "Core": 3803,
      "Dillon": 3804,
      "Ele": 3805,
      "Fro": 3806,
      "Ford": 3807,
      "GM": 3808,
      "Go": 3809,
      "Gor": 3810,
      "Gav": 3811,
      "Green": 3812,
      "Gér": 3813,
      "Hart": 3814,
      "Hong": 3815,
      "Hung": 3816,
      "Hans": 3817,
      "Ire": 3818,
      "Iso": 3819,
      "Ji": 3820,
      "Kent": 3821,
      "Kong": 3822,
      "Kelly": 3823,
      "Lau": 3824,
      "Ladd": 3825,
      "Mi": 3826,
      "Med": 3827,
      "Mass": 3828,
      "Meg": 3829,
      "Mason": 3830,
      "Metro": 3831,
      "Morgan": 3832,
      "Mitchell": 3833,
      "Otto": 3834,
      "Pas": 3835,
      "Pal": 3836,
      "Pedro": 3837,
      "Rand": 3838,
      "Rev": 3839,
      "Rush": 3840,
      "Reed": 3841,
      "Randol": 3842,
      "So": 3843,
      "Sil": 3844,
      "Sen": 3845,
      "Sig": 3846,
      "Sab": 3847,
      "Sup": 3848,
      "Song": 3849,
      "Serb": 3850,
      "Tre": 3851,
      "Tinto": 3852,
      "Vern": 3853,
      "Wis": 3854,
      "_American": 3855,
      "aur": 3856,
      "aid": 3857,
      "bon": 3858,
      "burn": 3859,
      "ci": 3860,
      "cam": 3861,
      "cred": 3862,
      "cia_": 3863,
      "cy_H": 3864,
      "cover": 3865,
      "dau": 3866,
      "fè": 3867,
      "fem": 3868,
      "fred": 3869,
      "gia": 3870,
      "gross": 3871,
      "hl": 3872,
      "jan": 3873,
      "ken": 3874,
      "kin_E": 3875,
      "mp": 3876,
      "mad": 3877,
      "mir": 3878,
      "main": 3879,
      "most": 3880,
      "miss": 3881,
      "muller": 3882,
      "ning": 3883,
      "nest": 3884,
      "num": 3885,
      "napp": 3886,
      "number": 3887,
      "nteniente": 3888,
      "oa": 3889,
      "o_T": 3890,
      "pho": 3891,
      "pos": 3892,
      "porn": 3893,
      "s_H": 3894,
      "sky": 3895,
      "tal": 3896,
      "tof": 3897,
      "vy": 3898,
      "vil": 3899,
      "ved": 3900,
      "vill": 3901,
      "video": 3902,
      "w_": 3903,
      "wen": 3904,
      "ye": 3905,
      "zman": 3906,
      "zys": 3907,
      "ztof": 3908,
      "ép": 3909,
      "éal": 3910,
      "ine_L": 3911,
      "inverso": 3912,
      "aro": 3913,
      "erot": 3914,
      "ería": 3915,
      "ante": 3916,
      "stud": 3917,
      "stage": 3918,
      "stone": 3919,
      "studio": 3920,
      "itel": 3921,
      "ita_": 3922,
      "itman": 3923,
      "itcom": 3924,
      "ense": 3925,
      "isson": 3926,
      "ished": 3927,
      "asc": 3928,
      "asy": 3929,
      "e_R": 3930,
      "e_au_": 3931,
      "e_siècle": 3932,
      "e_mozze": 3933,
      "aly": 3934,
      "alam": 3935,
      "algia": 3936,
      "thel": 3937,
      "the_Kid": 3938,
      "rojo": 3939,
      "Cape": 3940,
      "Capone": 3941,
      "atural": 3942,
      "eson": 3943,
      "uni": 3944,
      "ams": 3945,
      "Cant": 3946,
      "Canar": 3947,
      "Canop": 3948,
      "Can_He": 3949,
      "Canoa": 3950,
      "a_Di": 3951,
      "a_las_": 3952,
      "a_contr": 3953,
      "tiz": 3954,
      "tist": 3955,
      "Camõ": 3956,
      "Camélias": 3957,
      "of_Bill": 3958,
      "y_the_Kid": 3959,
      "_More": 3960,
      "Captain_John": 3961,
      "Captain_Conan": 3962,
      "Captain_Pirate": 3963,
      "mei": 3964,
      "ola_": 3965,
      "olte": 3966,
      "olution": 3967,
      "Calle_May": 3968,
      "Calabo": 3969,
      "_Sim": 3970,
      "_Soon": 3971,
      "acce": 3972,
      "ets": 3973,
      "et_Mer": 3974,
      "oms": 3975,
      "using": 3976,
      "uses": 3977,
      "irc": 3978,
      "irth": 3979,
      "iraj": 3980,
      "illo": 3981,
      "illand": 3982,
      "illion": 3983,
      "than": 3984,
      "rie": 3985,
      "ayne": 3986,
      "_Bl": 3987,
      "_Bush": 3988,
      "wash": 3989,
      "former": 3990,
      "Joan": 3991,
      "Joel": 3992,
      "Its": 3993,
      "mance": 3994,
      "berta": 3995,
      "_Cur": 3996,
      "_Com": 3997,
      "_Cudd": 3998,
      "_Foster": 3999,
      "_Flight": 4000,
      "ident": 4001,
      "2013_film": 4002,
      "_Air": 4003,
      "lott": 4004,
      "local": 4005,
      "_Ha": 4006,
      "_Hal": 4007,
      "Mary_": 4008,
      "Marian": 4009,
      "Camp_Tak": 4010,
      "Camp_Cudd": 4011,
      "aving": 4012,
      "avier": 4013,
      "_Dub": 4014,
      "_Duck": 4015,
      "_Day_": 4016,
      "_Dwan": 4017,
      "_Dancer": 4018,
      "_the_Bush": 4019,
      "_the_Air": 4020,
      "cher": 4021,
      "agn": 4022,
      "agal": 4023,
      "agic": 4024,
      "ova": 4025,
      "_We": 4026,
      "2009_film": 4027,
      "ellman": 4028,
      "Street": 4029,
      "igi": 4030,
      "abaki": 4031,
      "Chic": 4032,
      "Chines": 4033,
      "Cab_N": 4034,
      "Caballo": 4035,
      "_Poll": 4036,
      "_Party": 4037,
      "_Powertool": 4038,
      "_Pocahontas": 4039,
      "rain": 4040,
      "comb": 4041,
      "ney_": 4042,
      "_Lang": 4043,
      "eva": 4044,
      "eves": 4045,
      "evez": 4046,
      "osc": 4047,
      "osh": 4048,
      "ose_": 4049,
      "emple": 4050,
      "John_M": 4051,
      "John_G": 4052,
      "s_Jitterbug": 4053,
      "tertain": 4054,
      "umpp": 4055,
      "ummings": 4056,
      "iang": 4057,
      "ouz": 4058,
      "ou_l": 4059,
      "1949_film": 4060,
      "Cafe_No": 4061,
      "Caffè": 4062,
      "_Kildare": 4063,
      "_Tune": 4064,
      "_Too": 4065,
      "_Taylor": 4066,
      "1938_film": 4067,
      "plit": 4068,
      "place": 4069,
      "of_the_Dead": 4070,
      "Alb": 4071,
      "California_Conquest": 4072,
      "arts": 4073,
      "1962": 4074,
      "1961_film": 4075,
      "oper": 4076,
      "1997": 4077,
      "tive": 4078,
      "anger": 4079,
      "Captives": 4080,
      "Call_Me": 4081,
      "earlier": 4082,
      "_El": 4083,
      "1923_film": 4084,
      "inee": 4085,
      "ck_Dub": 4086,
      "Call_Me_Elisabeth": 4087,
      "Call_Me_Tonight": 4088,
      "_The_I": 4089,
      "_The_Ris": 4090,
      "Films": 4091,
      "rent": 4092,
      "_Robert": 4093,
      "_Roach": 4094,
      "_Street": 4095,
      "Camille_Guaty": 4096,
      "upon": 4097,
      "Canne_mozze": 4098,
      "Call_of_the_Flesh": 4099,
      "Franck_Dub": 4100,
      "Janis": 4101,
      "ograp": 4102,
      "eymour": 4103,
      "considered": 4104,
      "Arnold": 4105,
      "1957": 4106,
      "Café_Paradis": 4107,
      "Caged_No": 4108,
      "Captive_of_Bill": 4109,
      "Lee_": 4110,
      "de_ou_l": 4111,
      "_Os": 4112,
      "_Onteniente": 4113,
      "exec": 4114,
      "Candyjam": 4115,
      "_and_Pocahontas": 4116,
      "_Jr": 4117,
      "enny_": 4118,
      "eban": 4119,
      "Cabaret_Dancer": 4120,
      "1913_film": 4121,
      "ains": 4122,
      "Calling_All_Pol": 4123,
      "David_B": 4124,
      "Adrian": 4125,
      "trand": 4126,
      "track": 4127,
      "tréal": 4128,
      "race": 4129,
      "Captain_Fly": 4130,
      "Calendar_": 4131,
      "obb": 4132,
      "Jackson": 4133,
      "ostalgia": 4134,
      "Canyon_Ra": 4135,
      "ver_the_Air": 4136,
      "ia_D": 4137,
      "ind_Tru": 4138,
      "ynch": 4139,
      "e_Happiness": 4140,
      "eroine": 4141,
      "titles": 4142,
      "Charlott": 4143,
      "Vaness": 4144,
      "claim": 4145,
      "uki": 4146,
      "André": 4147,
      "short_film": 4148,
      "Jones": 4149,
      "issmuller": 4150,
      "oks": 4151,
      "wanese": 4152,
      "Noel": 4153,
      "ments": 4154,
      "1852": 4155,
      "Walker": 4156,
      "Paris": 4157,
      "anna": 4158,
      "annah": 4159,
      "Captain_America_II": 4160,
      "Bertrand": 4161,
      "ances": 4162,
      "ly_Pines": 4163,
      "Goldwyn": 4164,
      "_Zan": 4165,
      "orsese": 4166,
      "_Wilson_": 4167,
      "Entertain": 4168,
      "eauty": 4169,
      "Canada_Di": 4170,
      "musician": 4171,
      "Candyman_3": 4172,
      "Cole": 4173,
      "Captain_Cleg": 4174,
      "century": 4175,
      "stery": 4176,
      "Captain_Magal": 4177,
      "Capital_": 4178,
      "Capitalism": 4179,
      "Mayer": 4180,
      "of_Heidi": 4181,
      "Cairo_30": 4182,
      "cannibal": 4183,
      "isme_au_": 4184,
      "Sheen": 4185,
      "Cadillac_Girls": 4186,
      "Bhar": 4187,
      "Doris": 4188,
      "Melv": 4189,
      "Allan_Dwan": 4190,
      "Esteban": 4191,
      "Henry_": 4192,
      "Jerry_": 4193,
      "Ronald": 4194,
      "Calling_the_Tune": 4195,
      "Alfredo_Zac": 4196,
      "4800": 4197,
      "4860": 4198,
      "Farnum": 4199,
      "_Smith_": 4200,
      "_Smith_and_Pocahontas": 4201,
      "Evans": 4202,
      "Scorsese": 4203,
      "Weissmuller": 4204,
      "Canal_Street": 4205,
      "Canvas_Back": 4206,
      "Captain_Thunderbolt": 4207,
      "Spencer_Gordon": 4208,
      "mystery": 4209,
      "Stanley": 4210,
      "Frances": 4211,
      "Andrews": 4212,
      "4920": 4213,
      "originally": 4214,
      "Candide_ou_l": 4215,
      "_Monster": 4216,
      "riedmans": 4217,
      "outh_Se": 4218,
      "1926_short_film": 4219,
      "Corpor": 4220,
      "Larry_": 4221,
      "_Merkin_E": 4222,
      "Captain_Applejack": 4223,
      "_Barry": 4224,
      "_Diamond": 4225,
      "children": 4226,
      "Call_Over_the_Air": 4227,
      "California_Dreaming_": 4228,
      "Nicolas": 4229,
      "Call_of_the_South_Se": 4230,
      "ver_Forget_Mer": 4231,
      "Cannery_Row_": 4232,
      "Lynn": 4233,
      "present": 4234,
      "Capulina_contr": 4235,
      "umber_13": 4236,
      "California_Frontier": 4237,
      "_Death_Too": 4238,
      "e_and_Fall_": 4239,
      "e_and_Find_Tru": 4240,
      "Afric": 4241,
      "fourth": 4242,
      "priet": 4243,
      "Cacería": 4244,
      "ice_Cars": 4245,
      "Johnny": 4246,
      "songs": 4247,
      "Walters": 4248,
      "Neil": 4249,
      "fessions": 4250,
      "Hugo": 4251,
      "Taiwanese": 4252,
      "cinemat": 4253,
      "lynn": 4254,
      "Collins": 4255,
      "Krzys": 4256,
      "XXe_siècle": 4257,
      "hardt": 4258,
      "limited": 4259,
      "pted": 4260,
      "_Stone": 4261,
      "_Fleiss": 4262,
      "heritance": 4263,
      "Fabien_Onteniente": 4264,
      "Costa": 4265,
      "Gautier": 4266,
      "Loretta": 4267,
      "_Bennet": 4268,
      "length": 4269,
      "Cagliostro_": 4270,
      "4740": 4271,
      "Bruno": 4272,
      "DVD": 4273,
      "Gaspar": 4274,
      "Gloria": 4275,
      "Original": 4276,
      "Sebastian": 4277,
      "satir": 4278,
      "uomo": 4279,
      "edouins": 4280,
      "Caltiki_": 4281,
      "Campfire_": 4282,
      "optimisme_au_": 4283,
      "Capricious_Summer": 4284,
      "effects": 4285,
      "Calvaire_": 4286,
      "mmortal_Monster": 4287,
      "Aubrey_Wis": 4288,
      "ironymus_Merkin_E": 4289,
      "Cafundó_": 4290,
      "5940": 4291,
      "Brazil": 4292,
      "Gérard": 4293,
      "Isobe": 4294,
      "Revolution": 4295,
      "Randolph": 4296,
      "Vernon": 4297,
      "cy_Humpp": 4298,
      "erotic": 4299,
      "Can_Heironymus_Merkin_E": 4300,
      "a_las_momias": 4301,
      "Captain_John_Smith_and_Pocahontas": 4302,
      "Calle_Mayor_": 4303,
      "Calaboose_": 4304,
      "accepted": 4305,
      "Camp_Takota": 4306,
      "Camp_Cuddly_Pines": 4307,
      "_Day_of_the_Dead": 4308,
      "_the_Bush_King": 4309,
      "Chinese": 4310,
      "Cab_Number_13": 4311,
      "_Powertool_Massacre": 4312,
      "s_Jitterbug_Party": 4313,
      "Cafe_Noir": 4314,
      "_The_Immortal_Monster": 4315,
      "_The_Rise_and_Fall_": 4316,
      "Franck_Dubosc": 4317,
      "Caged_No_More": 4318,
      "Captive_of_Billy_the_Kid": 4319,
      "Calling_All_Police_Cars": 4320,
      "Canyon_Raiders": 4321,
      "Entertainment": 4322,
      "Canada_Di_Flight": 4323,
      "Captain_Clegg_": 4324,
      "of_Heidi_Fleiss": 4325,
      "Alfredo_Zacarías": 4326,
      "Canal_Street_": 4327,
      "Canvas_Back_Duck": 4328,
      "Captain_Thunderbolt_": 4329,
      "Spencer_Gordon_Bennet": 4330,
      "Corporation": 4331,
      "Call_of_the_South_Seas": 4332,
      "ver_Forget_Mercy_Humpp": 4333,
      "Capulina_contra_las_momias": 4334,
      "_Death_Too_Soon": 4335,
      "e_and_Find_True_Happiness": 4336,
      "Krzysztof": 4337,
      "optimisme_au_XXe_siècle": 4338,
      "Aubrey_Wisberg": 4339,
      "Can_Heironymus_Merkin_Ever_Forget_Mercy_Humpp": 4340,
      "Camp_Cuddly_Pines_Powertool_Massacre": 4341,
      "_The_Rise_and_Fall_of_Heidi_Fleiss": 4342,
      "Can_Heironymus_Merkin_Ever_Forget_Mercy_Humppe_and_Find_True_Happiness": 4343,
      "05": 4344,
      "06": 4345,
      "26": 4346,
      "28": 4347,
      "2Cam": 4348,
      "3300": 4349,
      "46": 4350,
      "4380": 4351,
      "540": 4352,
      "69": 4353,
      "84": 4354,
      "Ast": 4355,
      "Ari": 4356,
      "BC": 4357,
      "Bin": 4358,
      "Bos": 4359,
      "Back": 4360,
      "Buck": 4361,
      "Cran": 4362,
      "Cour": 4363,
      "CBS": 4364,
      "Des": 4365,
      "Dian": 4366,
      "Dwan": 4367,
      "Ew": 4368,
      "FI": 4369,
      "Fil": 4370,
      "Fre": 4371,
      "Fli": 4372,
      "Fung": 4373,
      "Fury": 4374,
      "Flesh": 4375,
      "Fair": 4376,
      "Gl": 4377,
      "Glo": 4378,
      "Grant": 4379,
      "Ho": 4380,
      "Hil": 4381,
      "Ham": 4382,
      "Hav": 4383,
      "Hou": 4384,
      "Heat": 4385,
      "Jud": 4386,
      "Judd": 4387,
      "Kir": 4388,
      "Kend": 4389,
      "Khan": 4390,
      "Kirby": 4391,
      "Kurt": 4392,
      "Kather": 4393,
      "Lov": 4394,
      "Mau": 4395,
      "Minn": 4396,
      "Mazz": 4397,
      "MGM": 4398,
      "Ni": 4399,
      "Nin": 4400,
      "Nar": 4401,
      "Ned": 4402,
      "Nour": 4403,
      "Nia_D": 4404,
      "Oscar": 4405,
      "Pres": 4406,
      "Peg": 4407,
      "Puri": 4408,
      "Ran": 4409,
      "Ric": 4410,
      "Run": 4411,
      "Raf": 4412,
      "Su": 4413,
      "Ser": 4414,
      "Say": 4415,
      "Sund": 4416,
      "Sea": 4417,
      "Seymour": 4418,
      "Tak": 4419,
      "Temple": 4420,
      "Vol": 4421,
      "With": 4422,
      "Woman": 4423,
      "Wolf": 4424,
      "Za": 4425,
      "Zo": 4426,
      "_John": 4427,
      "aff": 4428,
      "buck": 4429,
      "born": 4430,
      "cial": 4431,
      "cép": 4432,
      "circ": 4433,
      "dor": 4434,
      "eud": 4435,
      "fin": 4436,
      "festival": 4437,
      "final": 4438,
      "flag": 4439,
      "ges": 4440,
      "gov": 4441,
      "hil": 4442,
      "hor": 4443,
      "hand": 4444,
      "high": 4445,
      "herself": 4446,
      "ih": 4447,
      "iation": 4448,
      "k_": 4449,
      "ku": 4450,
      "kes": 4451,
      "killer": 4452,
      "lorn": 4453,
      "mil": 4454,
      "mes": 4455,
      "my_": 4456,
      "mall": 4457,
      "million": 4458,
      "ned": 4459,
      "na_": 4460,
      "now": 4461,
      "nick": 4462,
      "network": 4463,
      "ouc": 4464,
      "oul": 4465,
      "post": 4466,
      "publ": 4467,
      "power": 4468,
      "rated": 4469,
      "sk": 4470,
      "sur": 4471,
      "s_B": 4472,
      "sch": 4473,
      "sell": 4474,
      "sim": 4475,
      "sson": 4476,
      "summer": 4477,
      "ski": 4478,
      "singer": 4479,
      "swash": 4480,
      "tw": 4481,
      "tz": 4482,
      "tar": 4483,
      "tran": 4484,
      "turn": 4485,
      "trip": 4486,
      "uy": 4487,
      "uit": 4488,
      "uro": 4489,
      "ues": 4490,
      "ufle": 4491,
      "utive": 4492,
      "va": 4493,
      "vest": 4494,
      "vey": 4495,
      "wide": 4496,
      "women": 4497,
      "xon": 4498,
      "zonz": 4499,
      "ël": 4500,
      "ín": 4501,
      "ón": 4502,
      "indi": 4503,
      "Cas": 4504,
      "araj": 4505,
      "an_": 4506,
      "ila": 4507,
      "rell": 4508,
      "repl": 4509,
      "refer": 4510,
      "repor": 4511,
      "ons": 4512,
      "onio": 4513,
      "ora_": 4514,
      "orth": 4515,
      "orter": 4516,
      "hee": 4517,
      "ito_de_": 4518,
      "edit": 4519,
      "en_": 4520,
      "enson": 4521,
      "ison": 4522,
      "isho": 4523,
      "e_C": 4524,
      "e_E": 4525,
      "e_Isobe": 4526,
      "alas": 4527,
      "ics": 4528,
      "ller": 4529,
      "rotti": 4530,
      "rooks": 4531,
      "Cape_N": 4532,
      "atin": 4533,
      "ating": 4534,
      "ata_": 4535,
      "atzman": 4536,
      "elyn": 4537,
      "ritz": 4538,
      "in_In": 4539,
      "in_Marshall": 4540,
      "Canone_": 4541,
      "Can_Go": 4542,
      "Canola_": 4543,
      "tian": 4544,
      "tists": 4545,
      "writing": 4546,
      "leen": 4547,
      "lestick": 4548,
      "Camion": 4549,
      "Camou": 4550,
      "Cameri": 4551,
      "Camele": 4552,
      "Cam2Cam": 4553,
      "_Morgan": 4554,
      "Captain_Bill": 4555,
      "Captain_Tugboat": 4556,
      "process": 4557,
      "Calls_": 4558,
      "adori": 4559,
      "adcast": 4560,
      "adway": 4561,
      "adhy": 4562,
      "Calzonz": 4563,
      "_Scott": 4564,
      "_Skin": 4565,
      "etz": 4566,
      "omb": 4567,
      "though": 4568,
      "ayalam": 4569,
      "toufle": 4570,
      "forc": 4571,
      "Row": 4572,
      "Roth": 4573,
      "Rosen": 4574,
      "many": 4575,
      "_City_": 4576,
      "_Cec": 4577,
      "_Cole": 4578,
      "_Craig": 4579,
      "_Fran": 4580,
      "host": 4581,
      "home": 4582,
      "ida": 4583,
      "idy": 4584,
      "idan": 4585,
      "idal": 4586,
      "2017": 4587,
      "_A_L": 4588,
      "_Hug": 4589,
      "_Heroine": 4590,
      "Maria": 4591,
      "_Gri": 4592,
      "_Gori": 4593,
      "_Goldb": 4594,
      "_Dem": 4595,
      "_De_L": 4596,
      "chise": 4597,
      "agy": 4598,
      "utter": 4599,
      "ulated": 4600,
      "_Wal": 4601,
      "_Worm": 4602,
      "2007_film": 4603,
      "Stone": 4604,
      "Storm": 4605,
      "Stuart": 4606,
      "iven": 4607,
      "ively": 4608,
      "igg": 4609,
      "uret": 4610,
      "io_P": 4611,
      "ers_": 4612,
      "abache": 4613,
      "Chang": 4614,
      "Cabasc": 4615,
      "_Pacif": 4616,
      "_Phil": 4617,
      "ests": 4618,
      "estley": 4619,
      "neg": 4620,
      "_Landers": 4621,
      "events": 4622,
      "Anita": 4623,
      "Annie": 4624,
      "Calib": 4625,
      "ement": 4626,
      "emory": 4627,
      "umi": 4628,
      "umiè": 4629,
      "aka": 4630,
      "Candlestick": 4631,
      "ima": 4632,
      "owler": 4633,
      "Call_Esteban": 4634,
      "1947": 4635,
      "1949": 4636,
      "_River_": 4637,
      "Cafe_Isobe": 4638,
      "_Katzman": 4639,
      "rice": 4640,
      "rico": 4641,
      "1933": 4642,
      "1934": 4643,
      "ationship": 4644,
      "Carthy": 4645,
      "plain": 4646,
      "of_the_Desert": 4647,
      "Calling_Phil": 4648,
      "Alice": 4649,
      "Alberto": 4650,
      "1965": 4651,
      "1966": 4652,
      "opadhy": 4653,
      "1993_film": 4654,
      "ernatural": 4655,
      "some": 4656,
      "ton_": 4657,
      "isha": 4658,
      "ewitt": 4659,
      "ugg": 4660,
      "_Ed": 4661,
      "_Execution": 4662,
      "Inheritance": 4663,
      "1929": 4664,
      "icki": 4665,
      "Call_Me_King": 4666,
      "beg": 4667,
      "becomes": 4668,
      "resi": 4669,
      "ren_Ker": 4670,
      "ameful": 4671,
      "_Roth": 4672,
      "phy": 4673,
      "upper": 4674,
      "whose": 4675,
      "Robertson": 4676,
      "arkar": 4677,
      "Dave": 4678,
      "Davies": 4679,
      "1973": 4680,
      "1977_film": 4681,
      "epp": 4682,
      "conc": 4683,
      "Art": 4684,
      "Arch": 4685,
      "Artists": 4686,
      "1954": 4687,
      "1955": 4688,
      "esser": 4689,
      "Cannibal_": 4690,
      "Cannibal_Camp": 4691,
      "Harris": 4692,
      "Café_Flesh": 4693,
      "Captive_Girl": 4694,
      "Captive_of_the_Desert": 4695,
      "Leo": 4696,
      "Edmund": 4697,
      "wards": 4698,
      "Thief": 4699,
      "Barr": 4700,
      "what": 4701,
      "Georges": 4702,
      "George_M": 4703,
      "George_S": 4704,
      "exter": 4705,
      "CandyFli": 4706,
      "ucker": 4707,
      "William_C": 4708,
      "William_F": 4709,
      "William_H": 4710,
      "Shak": 4711,
      "Shaw": 4712,
      "Sharon": 4713,
      "_Jen": 4714,
      "_Jack": 4715,
      "enner": 4716,
      "eba": 4717,
      "people": 4718,
      "Cabaret_Woman": 4719,
      "aine_": 4720,
      "Dann": 4721,
      "David_S": 4722,
      "Cabin_Pressure": 4723,
      "Canyon_River_": 4724,
      "aire": 4725,
      "Campus_Con": 4726,
      "Campus_Di": 4727,
      "indust": 4728,
      "e_Lester": 4729,
      "Cadet_Hol": 4730,
      "Norma": 4731,
      "Norma_": 4732,
      "Camila": 4733,
      "offresi": 4734,
      "panky": 4735,
      "Canadian_Pacif": 4736,
      "ondon": 4737,
      "Amato": 4738,
      "performed": 4739,
      "Vanity": 4740,
      "azabache": 4741,
      "attem": 4742,
      "Deep": 4743,
      "heng": 4744,
      "Andre": 4745,
      "Jonas": 4746,
      "ducted": 4747,
      "issa": 4748,
      "Newley": 4749,
      "ontz": 4750,
      "Noah": 4751,
      "Sam_Katzman": 4752,
      "Isra": 4753,
      "Calculated": 4754,
      "supernatural": 4755,
      "_Iron": 4756,
      "e_Wood": 4757,
      "Broadway": 4758,
      "Captain_Spanky": 4759,
      "July": 4760,
      "romance": 4761,
      "Louise_Lester": 4762,
      "Herman": 4763,
      "olome": 4764,
      "Luigi": 4765,
      "_Warren_Ker": 4766,
      "Coast": 4767,
      "Gerald": 4768,
      "Gertr": 4769,
      "Hal_Roach": 4770,
      "Alfonso": 4771,
      "Lew_Landers": 4772,
      "_Carradine": 4773,
      "spi": 4774,
      "until": 4775,
      "Calvin_Marshall": 4776,
      "Capital_Execution": 4777,
      "leader": 4778,
      "Capture_the_F": 4779,
      "s_Show": 4780,
      "Giorg": 4781,
      "canti": 4782,
      "California_Split": 4783,
      "Max": 4784,
      "Oliver": 4785,
      "Cadillac_Desert": 4786,
      "Emil": 4787,
      "Emman": 4788,
      "nominee": 4789,
      "Esther": 4790,
      "Estevez": 4791,
      "Cafe_Moscow": 4792,
      "broadcast": 4793,
      "haber": 4794,
      "Caminito_de_": 4795,
      "_And": 4796,
      "_Annie": 4797,
      "io_rojo": 4798,
      "_Lee": 4799,
      "Evelyn": 4800,
      "Malcol": 4801,
      "Malayalam": 4802,
      "Capote": 4803,
      "depict": 4804,
      "Flock": 4805,
      "Gene": 4806,
      "Candide": 4807,
      "Candida": 4808,
      "_Montréal": 4809,
      "Sean": 4810,
      "Tyr": 4811,
      "_Barb": 4812,
      "ove_Story": 4813,
      "collabor": 4814,
      "Capturing_the_F": 4815,
      "Gregory_": 4816,
      "Australia": 4817,
      "Seton": 4818,
      "Wallace": 4819,
      "itzer": 4820,
      "themsel": 4821,
      "Cannes_Man": 4822,
      "biography": 4823,
      "Ernest": 4824,
      "presenz": 4825,
      "relationship": 4826,
      "chi_Gori": 4827,
      "Steele": 4828,
      "Stephan": 4829,
      "astrone": 4830,
      "Adolph": 4831,
      "Adolfo": 4832,
      "_Through_Skin": 4833,
      "Demonio": 4834,
      "Feely": 4835,
      "Leslie": 4836,
      "Caccia_": 4837,
      "Johansson": 4838,
      "countries": 4839,
      "Canyon_City_": 4840,
      "performance": 4841,
      "Canned_Feud": 4842,
      "Camille_Claudel_1915": 4843,
      "Bennet": 4844,
      "Kenneth": 4845,
      "feld": 4846,
      "ghter": 4847,
      "lag_": 4848,
      "spector": 4849,
      "viol": 4850,
      "Barrymore": 4851,
      "Plays_H": 4852,
      "friends": 4853,
      "Pantoufle": 4854,
      "valcanti": 4855,
      "Bruce": 4856,
      "Linda": 4857,
      "design": 4858,
      "franchise": 4859,
      "Caitlin_": 4860,
      "Calle_7": 4861,
      "Candy_Stripers_": 4862,
      "Enriqu": 4863,
      "experiences": 4864,
      "Captured_by_B": 4865,
      "murdered": 4866,
      "Buzz": 4867,
      "Jesse": 4868,
      "Kathleen": 4869,
      "Lisa_": 4870,
      "Music": 4871,
      "Nicholas": 4872,
      "Pollak": 4873,
      "Sarah": 4874,
      "Telugu": 4875,
      "Vivian": 4876,
      "iedell": 4877,
      "model": 4878,
      "popular": 4879,
      "Cantonen": 4880,
      "Margaret": 4881,
      "Marilyn": 4882,
      "successful": 4883,
      "_Lewis_": 4884,
      "Universe": 4885,
      "Kristen": 4886,
      "Nigel": 4887,
      "_Italia": 4888,
      "anthology": 4889,
      "Théophile": 4890,
      "o_Vance": 4891,
      "inspired": 4892,
      "_Thomas": 4893,
      "competition": 4894,
      "Massim": 4895,
      "daughter": 4896,
      "female": 4897,
      "napping": 4898,
      "photo": 4899,
      "Canario_rojo": 4900,
      "Canopy_": 4901,
      "Camões_": 4902,
      "Chicago": 4903,
      "Caffè_Italia": 4904,
      "executive": 4905,
      "Brazilian": 4906,
      "Mazzei": 4907,
      "Pegg": 4908,
      "cépolo": 4909,
      "published": 4910,
      "s_Beauty": 4911,
      "swashbuck": 4912,
      "replac": 4913,
      "reporter": 4914,
      "Cape_Nostalgia": 4915,
      "Canone_inverso": 4916,
      "Can_Go_Through_Skin": 4917,
      "Captain_Tugboat_Annie": 4918,
      "_Cecchi_Gori": 4919,
      "_A_Love_Story": 4920,
      "Cabascabo": 4921,
      "umière": 4922,
      "Calling_Philo_Vance": 4923,
      "opadhyay": 4924,
      "Cannibal_Campout": 4925,
      "CandyFlip": 4926,
      "Cabin_Pressure_": 4927,
      "Campus_Confessions": 4928,
      "Campus_Diary": 4929,
      "Cadet_Holiday": 4930,
      "Canadian_Pacific_": 4931,
      "_Warren_Kerrigan": 4932,
      "Capture_the_Flag_": 4933,
      "s_Showboat": 4934,
      "Cadillac_Desert_": 4935,
      "Caminito_de_Gloria": 4936,
      "Malcolm": 4937,
      "Capturing_the_Friedmans": 4938,
      "themselves": 4939,
      "Caccia_all": 4940,
      "Plays_Herself": 4941,
      "Caitlin_Plays_Herself": 4942,
      "Captured_by_Bedouins": 4943,
      "180": 4944,
      "140": 4945,
      "360": 4946,
      "420": 4947,
      "4560": 4948,
      "500": 4949,
      "6840": 4950,
      "76": 4951,
      "88": 4952,
      "90": 4953,
      "Aj": 4954,
      "Aki": 4955,
      "Bre": 4956,
      "Billi": 4957,
      "Bust": 4958,
      "Bush": 4959,
      "Burt": 4960,
      "Black": 4961,
      "Burton": 4962,
      "CU": 4963,
      "Cold": 4964,
      "Crist": 4965,
      "Court": 4966,
      "Craig": 4967,
      "Cummings": 4968,
      "Dy": 4969,
      "Dur": 4970,
      "Dut": 4971,
      "Doc": 4972,
      "Dere": 4973,
      "Duff": 4974,
      "Eg": 4975,
      "Ez": 4976,
      "Ever": 4977,
      "Ellis": 4978,
      "Ethel": 4979,
      "Fu": 4980,
      "Fle": 4981,
      "Feat": 4982,
      "Forest": 4983,
      "Fried": 4984,
      "Gin": 4985,
      "Gard": 4986,
      "Gem": 4987,
      "Gary_": 4988,
      "Gray": 4989,
      "Gato": 4990,
      "Graff": 4991,
      "Gillespie": 4992,
      "Hé": 4993,
      "Hard": 4994,
      "Hall": 4995,
      "Hoff": 4996,
      "Hunter": 4997,
      "Hannah": 4998,
      "Izz": 4999,
      "Jar": 5000,
      "Jorg": 5001,
      "Kas": 5002,
      "Kay": 5003,
      "Kos": 5004,
      "Kern": 5005,
      "Kirst": 5006,
      "Low": 5007,
      "Lori": 5008,
      "Ladis": 5009,
      "Landers": 5010,
      "Latin": 5011,
      "Mr": 5012,
      "Mand": 5013,
      "Mell": 5014,
      "Mos": 5015,
      "Mak": 5016,
      "More": 5017,
      "Maj": 5018,
      "Mund": 5019,
      "Mull": 5020,
      "Massacre": 5021,
      "Mitch": 5022,
      "MCU": 5023,
      "Nav": 5024,
      "Naz": 5025,
      "Network": 5026,
      "One": 5027,
      "Oumar": 5028,
      "Pre": 5029,
      "Paw": 5030,
      "Port": 5031,
      "Park": 5032,
      "Power": 5033,
      "Rit": 5034,
      "Rad": 5035,
      "Rup": 5036,
      "Rey": 5037,
      "Reb": 5038,
      "Rache": 5039,
      "River": 5040,
      "Sy": 5041,
      "Sing": 5042,
      "Sta": 5043,
      "Sho": 5044,
      "Sav": 5045,
      "Sco": 5046,
      "Sud": 5047,
      "Sei": 5048,
      "Summer": 5049,
      "Seth": 5050,
      "Syl": 5051,
      "Swanberg": 5052,
      "Sherman": 5053,
      "Tw": 5054,
      "Ted": 5055,
      "Tay": 5056,
      "Tru": 5057,
      "Too": 5058,
      "Trey_": 5059,
      "Vic": 5060,
      "Vill": 5061,
      "Vald": 5062,
      "Vla": 5063,
      "Vitt": 5064,
      "Writ": 5065,
      "Who": 5066,
      "Wald": 5067,
      "Wei": 5068,
      "Wini": 5069,
      "Xia": 5070,
      "Your": 5071,
      "_of_the": 5072,
      "_James": 5073,
      "_musical": 5074,
      "_priet": 5075,
      "athe": 5076,
      "abertooth": 5077,
      "bin": 5078,
      "bel": 5079,
      "bot": 5080,
      "bud": 5081,
      "ce_": 5082,
      "cov": 5083,
      "cross": 5084,
      "dan": 5085,
      "det": 5086,
      "desc": 5087,
      "fl": 5088,
      "far": 5089,
      "fen": 5090,
      "fig": 5091,
      "fall": 5092,
      "foc": 5093,
      "fant": 5094,
      "foo": 5095,
      "free": 5096,
      "fford": 5097,
      "father": 5098,
      "gom": 5099,
      "gud": 5100,
      "grap": 5101,
      "hir": 5102,
      "hman": 5103,
      "hart": 5104,
      "hmann": 5105,
      "hmed": 5106,
      "iu": 5107,
      "iy": 5108,
      "ior": 5109,
      "ife": 5110,
      "jer": 5111,
      "jev": 5112,
      "jani": 5113,
      "ks": 5114,
      "ked": 5115,
      "kal": 5116,
      "kel": 5117,
      "lman": 5118,
      "late": 5119,
      "ler_": 5120,
      "living": 5121,
      "lives": 5122,
      "ms": 5123,
      "mel": 5124,
      "mov": 5125,
      "mut": 5126,
      "mark": 5127,
      "midd": 5128,
      "mble": 5129,
      "mste": 5130,
      "nz": 5131,
      "nar": 5132,
      "ne_": 5133,
      "nett": 5134,
      "naux": 5135,
      "nink": 5136,
      "oor": 5137,
      "o_S": 5138,
      "ose": 5139,
      "oads": 5140,
      "po": 5141,
      "py": 5142,
      "phe": 5143,
      "pard": 5144,
      "past": 5145,
      "pris": 5146,
      "pts": 5147,
      "qa": 5148,
      "rd": 5149,
      "ront": 5150,
      "ra_P": 5151,
      "rugg": 5152,
      "sin": 5153,
      "slas": 5154,
      "sport": 5155,
      "sib": 5156,
      "sitcom": 5157,
      "sheng": 5158,
      "tre": 5159,
      "try": 5160,
      "t_Com": 5161,
      "ua": 5162,
      "uh": 5163,
      "uell": 5164,
      "ude": 5165,
      "u_N": 5166,
      "vov": 5167,
      "via": 5168,
      "vict": 5169,
      "wy": 5170,
      "whe": 5171,
      "win_": 5172,
      "when": 5173,
      "yne": 5174,
      "yson": 5175,
      "zed": 5176,
      "zeg": 5177,
      "ár": 5178,
      "ás": 5179,
      "äki": 5180,
      "èn": 5181,
      "ès": 5182,
      "ía_": 5183,
      "ño": 5184,
      "óh": 5185,
      "inc": 5186,
      "iner": 5187,
      "inic": 5188,
      "inney": 5189,
      "international": 5190,
      "ine_D": 5191,
      "inata": 5192,
      "Cast": 5193,
      "Caio": 5194,
      "arn": 5195,
      "arro": 5196,
      "arch": 5197,
      "arian": 5198,
      "arma": 5199,
      "arlett": 5200,
      "erg": 5201,
      "ery": 5202,
      "era_": 5203,
      "anar": 5204,
      "stin": 5205,
      "stories": 5206,
      "strugg": 5207,
      "ingo": 5208,
      "ref": 5209,
      "rey": 5210,
      "review": 5211,
      "represent": 5212,
      "filming": 5213,
      "onic": 5214,
      "onto": 5215,
      "orio": 5216,
      "orlorn": 5217,
      "hem": 5218,
      "hell": 5219,
      "itta": 5220,
      "itation": 5221,
      "ities": 5222,
      "edited": 5223,
      "enovel": 5224,
      "andro": 5225,
      "andopadhyay": 5226,
      "ising": 5227,
      "isenberg": 5228,
      "e_Ac": 5229,
      "e_Mara": 5230,
      "alog": 5231,
      "altern": 5232,
      "althy": 5233,
      "alqa": 5234,
      "ico": 5235,
      "dia": 5236,
      "dio": 5237,
      "differ": 5238,
      "dimir": 5239,
      "dialog": 5240,
      "roe": 5241,
      "rop": 5242,
      "rock": 5243,
      "Capul": 5244,
      "Capell": 5245,
      "atra": 5246,
      "ators": 5247,
      "esem": 5248,
      "direction": 5249,
      "tage": 5250,
      "unn": 5251,
      "unity": 5252,
      "rittain": 5253,
      "Cane_T": 5254,
      "Canon_": 5255,
      "Cane_R": 5256,
      "a_L": 5257,
      "a_Bh": 5258,
      "a_offresi": 5259,
      "a_presenz": 5260,
      "leeson": 5261,
      "ucquet": 5262,
      "often": 5263,
      "of_Worm": 5264,
      "y_T": 5265,
      "y_W": 5266,
      "_Men": 5267,
      "_Mat": 5268,
      "_Mason": 5269,
      "_Magic": 5270,
      "_Memory": 5271,
      "Captain_Demonio": 5272,
      "profession": 5273,
      "olff": 5274,
      "olina": 5275,
      "olini": 5276,
      "Calla_": 5277,
      "adh": 5278,
      "adition": 5279,
      "adult": 5280,
      "adagn": 5281,
      "urst": 5282,
      "_Sea": 5283,
      "acho": 5284,
      "ira": 5285,
      "thau": 5286,
      "there": 5287,
      "third": 5288,
      "tholome": 5289,
      "rik": 5290,
      "rix": 5291,
      "_Bandopadhyay": 5292,
      "_Brittain": 5293,
      "entino": 5294,
      "for_Love": 5295,
      "Joe_S": 5296,
      "Roberto": 5297,
      "man_": 5298,
      "bers": 5299,
      "_Cho": 5300,
      "_Coll": 5301,
      "_Fu": 5302,
      "_Fear_": 5303,
      "hosp": 5304,
      "idson": 5305,
      "_A_Sh": 5306,
      "lob": 5307,
      "lover": 5308,
      "_Hy": 5309,
      "_Howard": 5310,
      "Maris": 5311,
      "María": 5312,
      "Campos": 5313,
      "Camp_St": 5314,
      "Camp_Fear_": 5315,
      "_Green": 5316,
      "_Graham": 5317,
      "_Den": 5318,
      "_Doug": 5319,
      "chary": 5320,
      "agh": 5321,
      "aghan": 5322,
      "_Wright": 5323,
      "_Wyatt": 5324,
      "ellini": 5325,
      "Stand": 5326,
      "iod": 5327,
      "abducted": 5328,
      "tens": 5329,
      "tenberg": 5330,
      "Cher": 5331,
      "Cab_No": 5332,
      "_Pan": 5333,
      "_Pere": 5334,
      "_Press": 5335,
      "rak": 5336,
      "rau": 5337,
      "raw": 5338,
      "sef": 5339,
      "section": 5340,
      "coming": 5341,
      "cox": 5342,
      "come": 5343,
      "copy": 5344,
      "neo": 5345,
      "nez": 5346,
      "odor": 5347,
      "_Low": 5348,
      "_Ladd": 5349,
      "_Lumière": 5350,
      "Ana": 5351,
      "emescu": 5352,
      "John_H": 5353,
      "John_E": 5354,
      "Johnston": 5355,
      "s_America": 5356,
      "s_Inheritance": 5357,
      "s_Vanity": 5358,
      "Call_for_Love": 5359,
      "iano": 5360,
      "1940_film": 5361,
      "ape": 5362,
      "apiro": 5363,
      "_Kung": 5364,
      "rics": 5365,
      "_Trotti": 5366,
      "author": 5367,
      "Carmi": 5368,
      "Carmen": 5369,
      "scho": 5370,
      "ock": 5371,
      "oche": 5372,
      "occur": 5373,
      "of_the_Barb": 5374,
      "orean": 5375,
      "Alyson": 5376,
      "1961": 5377,
      "1969": 5378,
      "opening": 5379,
      "1991": 5380,
      "1998_film": 5381,
      "erns": 5382,
      "iao": 5383,
      "ishra": 5384,
      "1981": 5385,
      "1983": 5386,
      "ryl_F": 5387,
      "_Em": 5388,
      "_Evan": 5389,
      "udson": 5390,
      "1921": 5391,
      "1924": 5392,
      "ickford": 5393,
      "Call_Me_Human": 5394,
      "Call_Me_Thief": 5395,
      "bee": 5396,
      "_The_Con": 5397,
      "_Ros": 5398,
      "_Rosen": 5399,
      "_Ste": 5400,
      "_Station": 5401,
      "_Stewart": 5402,
      "Camille_of_the_Barb": 5403,
      "_Year": 5404,
      "arklow": 5405,
      "arkington": 5406,
      "lystone": 5407,
      "lyrics": 5408,
      "1972": 5409,
      "1975": 5410,
      "epis": 5411,
      "cons": 5412,
      "cont": 5413,
      "Harvey": 5414,
      "ister": 5415,
      "Café_Lumière": 5416,
      "Caprice": 5417,
      "Captive_Flock": 5418,
      "Edgar": 5419,
      "uston": 5420,
      "Bartholome": 5421,
      "ielgud": 5422,
      "exfen": 5423,
      "Candy_Corn": 5424,
      "gerald": 5425,
      "1915_film": 5426,
      "Calling_All_Star": 5427,
      "Danish": 5428,
      "Cairo_Station": 5429,
      "Adjani": 5430,
      "truck": 5431,
      "tradition": 5432,
      "racy": 5433,
      "athiraj": 5434,
      "Jacki": 5435,
      "Jack_Poll": 5436,
      "ahon": 5437,
      "verman": 5438,
      "e_San": 5439,
      "o_azabache": 5440,
      "would": 5441,
      "Cadets_of": 5442,
      "Capitaine_": 5443,
      "Frank_Ryan": 5444,
      "peroli": 5445,
      "period": 5446,
      "Brin": 5447,
      "Brasse": 5448,
      "Elmer": 5449,
      "Elio": 5450,
      "Elsa": 5451,
      "VanCamp": 5452,
      "atty": 5453,
      "attle": 5454,
      "Dean": 5455,
      "Dead": 5456,
      "Death": 5457,
      "ike_Ac": 5458,
      "Calm_at": 5459,
      "Andy": 5460,
      "Andy_": 5461,
      "shorts": 5462,
      "Jon_Mc": 5463,
      "ege": 5464,
      "ary_Coast": 5465,
      "gener": 5466,
      "_McLaglen": 5467,
      "Noé": 5468,
      "1800": 5469,
      "1863": 5470,
      "Walsh": 5471,
      "makes": 5472,
      "week": 5473,
      "wealthy": 5474,
      "ashlin": 5475,
      "e_Bro": 5476,
      "e_Burton": 5477,
      "yptian": 5478,
      "McCarthy": 5479,
      "King_": 5480,
      "e_Wil": 5481,
      "urnette": 5482,
      "Edward_H": 5483,
      "Brothers": 5484,
      "Meaghan": 5485,
      "Tom_H": 5486,
      "Captain_Sabertooth": 5487,
      "Brid": 5488,
      "Bride_": 5489,
      "Jules": 5490,
      "Peter_B": 5491,
      "_Zone_": 5492,
      "_Zukor": 5493,
      "Captain_Kisho": 5494,
      "works": 5495,
      "worker": 5496,
      "worked": 5497,
      "Guy": 5498,
      "Guadagn": 5499,
      "dock": 5500,
      "ociety": 5501,
      "show": 5502,
      "Steven": 5503,
      "Steve_": 5504,
      "Stevens": 5505,
      "Murdock": 5506,
      "ronized": 5507,
      "Carey": 5508,
      "ittle": 5509,
      "Martinelli": 5510,
      "Anna": 5511,
      "Cape_Forlorn": 5512,
      "adda": 5513,
      "Cactus_": 5514,
      "Greta": 5515,
      "_Carr": 5516,
      "centers": 5517,
      "Captain_Mike_Ac": 5518,
      "Thompson": 5519,
      "_and_the_Magic": 5520,
      "Capital_I": 5521,
      "Donald_Brittain": 5522,
      "Victor_McLaglen": 5523,
      "Madh": 5524,
      "Madele": 5525,
      "Color": 5526,
      "ismäki": 5527,
      "California_Suit": 5528,
      "Camera_Shy": 5529,
      "Camera_Buff": 5530,
      "5220": 5531,
      "Gabby": 5532,
      "Oliv": 5533,
      "Olmste": 5534,
      "_Cass": 5535,
      "_Cavalcanti": 5536,
      "appears": 5537,
      "appearances": 5538,
      "Helen_M": 5539,
      "Mille": 5540,
      "Milburn": 5541,
      "Ramon": 5542,
      "formation": 5543,
      "Alexander": 5544,
      "While": 5545,
      "Marcel": 5546,
      "Camp_Blood_": 5547,
      "Grand": 5548,
      "brothers": 5549,
      "ibbee": 5550,
      "mons": 5551,
      "_Anton": 5552,
      "included": 5553,
      "Eli_Roth": 5554,
      "MacDonald": 5555,
      "MacMurray": 5556,
      "Scarlett": 5557,
      "Teres": 5558,
      "Weaver": 5559,
      "married": 5560,
      "Canals": 5561,
      "Canal_Zone_": 5562,
      "_Woman_of_the": 5563,
      "3000": 5564,
      "Booth": 5565,
      "Forb": 5566,
      "bella_presenz": 5567,
      "ift": 5568,
      "Jefferson": 5569,
      "ground": 5570,
      "e_Nurses": 5571,
      "Calling_All_Crooks": 5572,
      "Claudel": 5573,
      "Darryl_F": 5574,
      "Monroe": 5575,
      "times": 5576,
      "college": 5577,
      "Carlos_": 5578,
      "Phillips": 5579,
      "Khush": 5580,
      "itzgerald": 5581,
      "Can_of_Worm": 5582,
      "composer": 5583,
      "Kevin_Fe": 5584,
      "Dorothy_": 5585,
      "7080": 5586,
      "Akir": 5587,
      "Chester": 5588,
      "Company": 5589,
      "Lynch": 5590,
      "Lionel_Barry": 5591,
      "After": 5592,
      "Demi": 5593,
      "Lesli": 5594,
      "oza": 5595,
      "Rossi": 5596,
      "Starring": 5597,
      "country": 5598,
      "Philippine": 5599,
      "Betty_": 5600,
      "Dominic": 5601,
      "Jayaraj": 5602,
      "Lois": 5603,
      "Prize": 5604,
      "Shane_Wood": 5605,
      "cameo": 5606,
      "felt": 5607,
      "help": 5608,
      "ross_America": 5609,
      "_Back_": 5610,
      "_White": 5611,
      "Call_Me_Mame": 5612,
      "_Young_": 5613,
      "Raymond_D": 5614,
      "Asim": 5615,
      "Hughes": 5616,
      "Jungle": 5617,
      "Menon": 5618,
      "Talmad": 5619,
      "banner": 5620,
      "cinema": 5621,
      "_Brown": 5622,
      "_Risk_": 5623,
      "1937_musical": 5624,
      "1914_American": 5625,
      "Brady": 5626,
      "Patricia_": 5627,
      "Anthony_": 5628,
      "Virginia": 5629,
      "Virginia_": 5630,
      "6360": 5631,
      "Polish": 5632,
      "Romanian": 5633,
      "Toby": 5634,
      "Tanner": 5635,
      "Toronto": 5636,
      "basi": 5637,
      "killed": 5638,
      "ésar": 5639,
      "Calle_54": 5640,
      "_Brass": 5641,
      "location": 5642,
      "_Pascal": 5643,
      "Candy_Stripe_Nurses": 5644,
      "classic": 5645,
      "Enrique": 5646,
      "Tony_Todd": 5647,
      "experience": 5648,
      "3900": 5649,
      "Agnes": 5650,
      "Cinematic": 5651,
      "Deron": 5652,
      "Dustin": 5653,
      "Michell": 5654,
      "grass": 5655,
      "slave": 5656,
      "s_Dream": 5657,
      "Canon_City_": 5658,
      "decade": 5659,
      "portrayed": 5660,
      "Maurice_": 5661,
      "explores": 5662,
      "exploitation": 5663,
      "Ayres": 5664,
      "Dowell": 5665,
      "Earth": 5666,
      "Griffith": 5667,
      "Hope": 5668,
      "Mirren": 5669,
      "Russo": 5670,
      "attachary": 5671,
      "Called_Back_": 5672,
      "scenes": 5673,
      "ographic": 5674,
      "Isabell": 5675,
      "Jessica_": 5676,
      "Lamar_Trotti": 5677,
      "2700": 5678,
      "7800": 5679,
      "Atwell": 5680,
      "Bodil": 5681,
      "Eleon": 5682,
      "Goran": 5683,
      "Irene": 5684,
      "Jiř": 5685,
      "Mike": 5686,
      "Pascal": 5687,
      "Serbian": 5688,
      "Tinto_Brass": 5689,
      "aurismäki": 5690,
      "bonnaux": 5691,
      "grossing": 5692,
      "mission": 5693,
      "pornographic": 5694,
      "ville": 5695,
      "ensemble": 5696,
      "Cantata_": 5697,
      "meijer": 5698,
      "_Weber": 5699,
      "Caballo_priet": 5700,
      "ouzanar": 5701,
      "ographer": 5702,
      "ynchronized": 5703,
      "Charlotte_Burton": 5704,
      "_Zanuck": 5705,
      "Bharathiraj": 5706,
      "African": 5707,
      "Astor": 5708,
      "Bosni": 5709,
      "Desmond": 5710,
      "Filip": 5711,
      "Havilland": 5712,
      "Lovato": 5713,
      "Sundance": 5714,
      "Zahn": 5715,
      "Zoë": 5716,
      "flage_": 5717,
      "similar": 5718,
      "target": 5719,
      "trans": 5720,
      "in_Inspector": 5721,
      "Camouflage_": 5722,
      "Cameriera_": 5723,
      "Cameleon_": 5724,
      "Calzonzin_Inspector": 5725,
      "ombardo": 5726,
      "iggs": 5727,
      "Calibre_": 5728,
      "Candlestick_": 5729,
      "Alberto_Cavalcanti": 5730,
      "ameful_Memory": 5731,
      "concerns": 5732,
      "Barrera": 5733,
      "_Jenkins": 5734,
      "_Jackson": 5735,
      "attempts": 5736,
      "Calculated_Risk_": 5737,
      "_Iron_Kung": 5738,
      "spirit": 5739,
      "Emmanuel": 5740,
      "Gregory_Peck": 5741,
      "Seton_I": 5742,
      "Adolph_Zukor": 5743,
      "designed": 5744,
      "Cantonen_Iron_Kung": 5745,
      "photograp": 5746,
      "Cristian": 5747,
      "Dutch": 5748,
      "Egyptian": 5749,
      "Izzo": 5750,
      "Oumarou": 5751,
      "Rupert": 5752,
      "Rachel": 5753,
      "Trey_Parker": 5754,
      "Vicent": 5755,
      "Vladimir": 5756,
      "Vittorio": 5757,
      "Written": 5758,
      "Winifred": 5759,
      "budget": 5760,
      "footage": 5761,
      "jević": 5762,
      "kaljević": 5763,
      "middle": 5764,
      "ninkmeijer": 5765,
      "slasher": 5766,
      "sports": 5767,
      "t_Complain": 5768,
      "vovsky": 5769,
      "enovela": 5770,
      "different": 5771,
      "Capulina": 5772,
      "Capellani": 5773,
      "esemael": 5774,
      "Cane_Toads": 5775,
      "Cane_River_": 5776,
      "Joe_Swanberg": 5777,
      "hospital": 5778,
      "_A_Shameful_Memory": 5779,
      "Camp_Stories": 5780,
      "_Evans_": 5781,
      "_The_Conquest": 5782,
      "Camille_of_the_Barbary_Coast": 5783,
      "Bartholomew": 5784,
      "Candy_Corn_": 5785,
      "Calling_All_Stars_": 5786,
      "Jack_Pollexfen": 5787,
      "o_azabache_": 5788,
      "Cadets_of_St": 5789,
      "Capitaine_Pantoufle": 5790,
      "Frank_Ryan_": 5791,
      "Brasseur": 5792,
      "Calm_at_Sea": 5793,
      "Jon_McBride_": 5794,
      "Captain_Sabertooth_and_the_Magic": 5795,
      "Captain_Kishore": 5796,
      "Guadagnino": 5797,
      "Captain_Mike_Across_America": 5798,
      "California_Suite_": 5799,
      "Olmstead": 5800,
      "_Woman_of_the_Year": 5801,
      "bella_presenza_offresi": 5802,
      "Can_of_Worms_": 5803,
      "Kevin_Feige": 5804,
      "Lionel_Barrymore": 5805,
      "Shane_Woodson": 5806,
      "Talmadge": 5807,
      "1914_American_film": 5808,
      "attacharyya": 5809,
      "Caballo_prieto_azabache_": 5810,
      "Bharathiraja": 5811,
      "Cameriera_bella_presenza_offresi": 5812,
      "Cantonen_Iron_Kung_Fu": 5813,
      "Captain_Sabertooth_and_the_Magic_Diamond": 5814,
      "23": 5815,
      "2n": 5816,
      "320": 5817,
      "340": 5818,
      "3240": 5819,
      "3360": 5820,
      "5340": 5821,
      "6th": 5822,
      "6240": 5823,
      "6660": 5824,
      "6540": 5825,
      "7560": 5826,
      "Act": 5827,
      "Ani": 5828,
      "Ary": 5829,
      "Age": 5830,
      "Avenger": 5831,
      "ABC": 5832,
      "Bell": 5833,
      "Bab": 5834,
      "Borg": 5835,
      "Bog": 5836,
      "Bank": 5837,
      "Barker": 5838,
      "Bals": 5839,
      "Boms": 5840,
      "Blystone": 5841,
      "CI": 5842,
      "Cr": 5843,
      "Cz": 5844,
      "Cer": 5845,
      "Cre": 5846,
      "Cic": 5847,
      "Cop": 5848,
      "Cine": 5849,
      "Cob": 5850,
      "Cesar": 5851,
      "Cull": 5852,
      "Count": 5853,
      "Dra": 5854,
      "Dall": 5855,
      "Die": 5856,
      "Dary": 5857,
      "Dep": 5858,
      "Dub": 5859,
      "Dirk": 5860,
      "Doyle": 5861,
      "Dexter": 5862,
      "East": 5863,
      "Etto": 5864,
      "Ebb": 5865,
      "Execution": 5866,
      "Fj": 5867,
      "Fis": 5868,
      "Fun": 5869,
      "Fam": 5870,
      "Fri": 5871,
      "Fall": 5872,
      "Fear": 5873,
      "Fort": 5874,
      "Flav": 5875,
      "Firth": 5876,
      "Flynn": 5877,
      "Fritz": 5878,
      "Fowler": 5879,
      "Fitzgerald": 5880,
      "Gy": 5881,
      "Gro": 5882,
      "Gol": 5883,
      "Gill": 5884,
      "Good": 5885,
      "Graham": 5886,
      "Hy": 5887,
      "His": 5888,
      "Had": 5889,
      "Hill": 5890,
      "Haw": 5891,
      "Hob": 5892,
      "Hind": 5893,
      "Hindi": 5894,
      "Hewitt": 5895,
      "Iris": 5896,
      "Ja": 5897,
      "Jag": 5898,
      "Jero": 5899,
      "Jay_": 5900,
      "Javier": 5901,
      "Ka": 5902,
      "Kat": 5903,
      "Kam": 5904,
      "Kidd": 5905,
      "Knight": 5906,
      "Kirk": 5907,
      "Korean": 5908,
      "Lin": 5909,
      "Lil": 5910,
      "Lon": 5911,
      "Len": 5912,
      "Las": 5913,
      "Lav": 5914,
      "Los": 5915,
      "Lem": 5916,
      "Light": 5917,
      "Lorn": 5918,
      "Lane": 5919,
      "Lerner": 5920,
      "Labaki": 5921,
      "Lenny_": 5922,
      "London": 5923,
      "Mu": 5924,
      "Mas": 5925,
      "Mam": 5926,
      "Mast": 5927,
      "Muk": 5928,
      "Myl": 5929,
      "Moscow": 5930,
      "Metz": 5931,
      "Na": 5932,
      "Nic": 5933,
      "Nanc": 5934,
      "Nagarjun": 5935,
      "Nunn": 5936,
      "Of": 5937,
      "Ot": 5938,
      "Out": 5939,
      "Owen": 5940,
      "Orell": 5941,
      "Po": 5942,
      "Pow": 5943,
      "Pau": 5944,
      "Pop": 5945,
      "Penn": 5946,
      "Pip": 5947,
      "Pile": 5948,
      "Poo": 5949,
      "Poland": 5950,
      "Praj": 5951,
      "Prin": 5952,
      "Prasad": 5953,
      "Payne": 5954,
      "Porter": 5955,
      "Prak": 5956,
      "Ry": 5957,
      "Ras": 5958,
      "Rom": 5959,
      "Rex": 5960,
      "Rub": 5961,
      "Rah": 5962,
      "Rele": 5963,
      "Russ": 5964,
      "Ritch": 5965,
      "Rilla": 5966,
      "Riedell": 5967,
      "Sel": 5968,
      "Sur": 5969,
      "Sch": 5970,
      "Sak": 5971,
      "Saw": 5972,
      "Soll": 5973,
      "Spe": 5974,
      "Sath": 5975,
      "Suk": 5976,
      "Stain": 5977,
      "Sara_": 5978,
      "Sek": 5979,
      "Sky": 5980,
      "Syd": 5981,
      "Santa": 5982,
      "Safari": 5983,
      "Slim": 5984,
      "Society": 5985,
      "SCI": 5986,
      "Tr": 5987,
      "Tuc": 5988,
      "Tho": 5989,
      "Tell": 5990,
      "Tos": 5991,
      "Two": 5992,
      "Tok": 5993,
      "Tandy": 5994,
      "Taylor": 5995,
      "Tarkington": 5996,
      "Vit": 5997,
      "Vig": 5998,
      "Vich": 5999,
      "Video": 6000,
      "Win": 6001,
      "Wer": 6002,
      "Wat": 6003,
      "West": 6004,
      "Wend": 6005,
      "Wade": 6006,
      "Wyn": 6007,
      "Water": 6008,
      "Wert": 6009,
      "Wadd": 6010,
      "Without": 6011,
      "Wright": 6012,
      "Werner": 6013,
      "Xue": 6014,
      "Xavier": 6015,
      "Yann": 6016,
      "Yous": 6017,
      "Yoland": 6018,
      "Ze": 6019,
      "Zar": 6020,
      "Zone": 6021,
      "Zain": 6022,
      "_actor": 6023,
      "_Van": 6024,
      "_von": 6025,
      "_Cage": 6026,
      "_Qu": 6027,
      "ao": 6028,
      "aun": 6029,
      "auren": 6030,
      "aescu": 6031,
      "aCosta": 6032,
      "aël": 6033,
      "aSco": 6034,
      "ahem": 6035,
      "bi": 6036,
      "bl": 6037,
      "br": 6038,
      "bar": 6039,
      "banks": 6040,
      "cy": 6041,
      "cer": 6042,
      "cor": 6043,
      "cat": 6044,
      "cri": 6045,
      "cia": 6046,
      "cord": 6047,
      "cip": 6048,
      "crew": 6049,
      "cardo": 6050,
      "ds": 6051,
      "dram": 6052,
      "dance": 6053,
      "eot": 6054,
      "eight": 6055,
      "ection": 6056,
      "eele": 6057,
      "fi": 6058,
      "ft": 6059,
      "fun": 6060,
      "fav": 6061,
      "find": 6062,
      "font": 6063,
      "full": 6064,
      "front": 6065,
      "ga": 6066,
      "gie": 6067,
      "gian": 6068,
      "game": 6069,
      "grad": 6070,
      "given": 6071,
      "hs": 6072,
      "hta": 6073,
      "hig": 6074,
      "hang": 6075,
      "husband": 6076,
      "having": 6077,
      "i_H": 6078,
      "iell": 6079,
      "ie_F": 6080,
      "kar": 6081,
      "king": 6082,
      "kish": 6083,
      "ker_": 6084,
      "le_": 6085,
      "lark": 6086,
      "litzer": 6087,
      "mü": 6088,
      "mig": 6089,
      "mot": 6090,
      "marks": 6091,
      "ny": 6092,
      "nav": 6093,
      "nell": 6094,
      "nazz": 6095,
      "nglish": 6096,
      "nature": 6097,
      "oî": 6098,
      "pa": 6099,
      "peri": 6100,
      "pper": 6101,
      "pair": 6102,
      "public": 6103,
      "pirate": 6104,
      "rí": 6105,
      "rar": 6106,
      "ror": 6107,
      "rich": 6108,
      "rillo": 6109,
      "sw": 6110,
      "sher": 6111,
      "sou": 6112,
      "sess": 6113,
      "sley": 6114,
      "sung": 6115,
      "sini": 6116,
      "ska": 6117,
      "six": 6118,
      "small": 6119,
      "siao": 6120,
      "synchronized": 6121,
      "ting": 6122,
      "tman": 6123,
      "tten": 6124,
      "uer": 6125,
      "uil": 6126,
      "u_S": 6127,
      "vor": 6128,
      "vel": 6129,
      "vall": 6130,
      "vory": 6131,
      "vary": 6132,
      "vice": 6133,
      "vester": 6134,
      "wal": 6135,
      "wid": 6136,
      "wore": 6137,
      "without": 6138,
      "wife": 6139,
      "yer": 6140,
      "ying": 6141,
      "yuki": 6142,
      "zu": 6143,
      "àto": 6144,
      "áv": 6145,
      "áz": 6146,
      "éry": 6147,
      "éris": 6148,
      "ślow": 6149,
      "ine_B": 6150,
      "Cara": 6151,
      "Case": 6152,
      "Carole": 6153,
      "arō": 6154,
      "ares": 6155,
      "arth": 6156,
      "ario": 6157,
      "arsh": 6158,
      "argo": 6159,
      "arza": 6160,
      "artist": 6161,
      "erd": 6162,
      "ery_": 6163,
      "anet": 6164,
      "antin": 6165,
      "PRESCI": 6166,
      "ilio": 6167,
      "ilog": 6168,
      "stit": 6169,
      "stand": 6170,
      "studios": 6171,
      "strong": 6172,
      "staff": 6173,
      "stock": 6174,
      "ret": 6175,
      "reon": 6176,
      "reco": 6177,
      "rely": 6178,
      "reiss": 6179,
      "reven": 6180,
      "revol": 6181,
      "refle": 6182,
      "ilmore": 6183,
      "oner": 6184,
      "onist": 6185,
      "order": 6186,
      "orpe": 6187,
      "orah": 6188,
      "hest": 6189,
      "hes_": 6190,
      "held": 6191,
      "iti": 6192,
      "itar": 6193,
      "ites": 6194,
      "itri": 6195,
      "itra": 6196,
      "itary": 6197,
      "itail": 6198,
      "itious": 6199,
      "edar": 6200,
      "eng": 6201,
      "ener": 6202,
      "ande": 6203,
      "and_D": 6204,
      "andarkar": 6205,
      "ctively": 6206,
      "iscépolo": 6207,
      "ases": 6208,
      "asury": 6209,
      "e_Thomas": 6210,
      "aland": 6211,
      "ality": 6212,
      "although": 6213,
      "ici": 6214,
      "icelli": 6215,
      "then": 6216,
      "thes": 6217,
      "they": 6218,
      "did": 6219,
      "llman": 6220,
      "rol": 6221,
      "atus": 6222,
      "atten": 6223,
      "1920": 6224,
      "19th": 6225,
      "table": 6226,
      "uneb": 6227,
      "elz": 6228,
      "elson": 6229,
      "elings": 6230,
      "in_Frank": 6231,
      "Cane": 6232,
      "a_K": 6233,
      "a_V": 6234,
      "a_Izzo": 6235,
      "tiis": 6236,
      "tial": 6237,
      "left": 6238,
      "ucqu": 6239,
      "Camargo": 6240,
      "y_Chan": 6241,
      "_Mal": 6242,
      "_Mishra": 6243,
      "program": 6244,
      "olph": 6245,
      "olkin": 6246,
      "ada": 6247,
      "ady": 6248,
      "uru": 6249,
      "urban": 6250,
      "urlitzer": 6251,
      "_Sin": 6252,
      "_Sar": 6253,
      "_She": 6254,
      "_Sen": 6255,
      "_Say": 6256,
      "_Sher": 6257,
      "_Sung": 6258,
      "_Sound": 6259,
      "_Sóh": 6260,
      "acy": 6261,
      "acher": 6262,
      "ace_M": 6263,
      "ace_B": 6264,
      "across": 6265,
      "acclaim": 6266,
      "omicki": 6267,
      "uso": 6268,
      "ushan": 6269,
      "irren": 6270,
      "iracy": 6271,
      "illy": 6272,
      "illian": 6273,
      "illy_R": 6274,
      "those": 6275,
      "merous": 6276,
      "riestley": 6277,
      "_Ben": 6278,
      "_Bur": 6279,
      "_Bren": 6280,
      "_Bog": 6281,
      "_Baker": 6282,
      "_Blier": 6283,
      "_Barklow": 6284,
      "tos": 6285,
      "took": 6286,
      "tos_D": 6287,
      "toine_D": 6288,
      "enty": 6289,
      "enter": 6290,
      "enton": 6291,
      "ently": 6292,
      "Joe_D": 6293,
      "João": 6294,
      "nier": 6295,
      "nie_": 6296,
      "Roc": 6297,
      "Rome": 6298,
      "Roop": 6299,
      "Roach": 6300,
      "berhardt": 6301,
      "_Cr": 6302,
      "_Chan": 6303,
      "_Curtis": 6304,
      "_Cobb": 6305,
      "_César": 6306,
      "_Clark": 6307,
      "_Ford": 6308,
      "hoite": 6309,
      "_Ad": 6310,
      "_Ay": 6311,
      "_Arau": 6312,
      "los": 6313,
      "lock": 6314,
      "lova": 6315,
      "_Hill": 6316,
      "_Hunter": 6317,
      "María_": 6318,
      "arde": 6319,
      "ardon": 6320,
      "ardem": 6321,
      "_Ganda": 6322,
      "_Grant": 6323,
      "aviation": 6324,
      "avalas": 6325,
      "_Du": 6326,
      "_Day": 6327,
      "_Doyle": 6328,
      "champ": 6329,
      "chitel": 6330,
      "agu": 6331,
      "agher": 6332,
      "agraph": 6333,
      "ovo": 6334,
      "ović": 6335,
      "utes": 6336,
      "utry": 6337,
      "ulik": 6338,
      "uléry": 6339,
      "_Wer": 6340,
      "_Wat": 6341,
      "_Ward": 6342,
      "_William": 6343,
      "elling": 6344,
      "Station": 6345,
      "Stark": 6346,
      "ivan": 6347,
      "ivas": 6348,
      "ivac": 6349,
      "igner": 6350,
      "ured": 6351,
      "abb": 6352,
      "abi": 6353,
      "abin": 6354,
      "abst": 6355,
      "abbe": 6356,
      "_Po": 6357,
      "_Parker": 6358,
      "_Poland": 6359,
      "_Pastrone": 6360,
      "_Peele": 6361,
      "radio": 6362,
      "secre": 6363,
      "estyle": 6364,
      "comic": 6365,
      "could": 6366,
      "near": 6367,
      "odrama": 6368,
      "allée": 6369,
      "allagher": 6370,
      "_Li": 6371,
      "_Lu": 6372,
      "_Lau": 6373,
      "_Law": 6374,
      "_Laz": 6375,
      "_Lucas": 6376,
      "evy": 6377,
      "Anj": 6378,
      "Anza": 6379,
      "Anita_": 6380,
      "Antoine_D": 6381,
      "emong": 6382,
      "emberg": 6383,
      "itha": 6384,
      "John_C": 6385,
      "John_A": 6386,
      "John_D": 6387,
      "John_St": 6388,
      "John_Far": 6389,
      "John_Cle": 6390,
      "umia": 6391,
      "akoff": 6392,
      "ieślow": 6393,
      "imova": 6394,
      "iana": 6395,
      "1941": 6396,
      "apis": 6397,
      "aplan": 6398,
      "_Rud": 6399,
      "_Russell": 6400,
      "_Kent": 6401,
      "_Kaurismäki": 6402,
      "_Te": 6403,
      "_Tucker": 6404,
      "rani": 6405,
      "ranger": 6406,
      "shan": 6407,
      "shmi": 6408,
      "1931": 6409,
      "aud": 6410,
      "audi": 6411,
      "Carm": 6412,
      "Carth": 6413,
      "Carradine": 6414,
      "assist": 6415,
      "Caddie": 6416,
      "plic": 6417,
      "sched": 6418,
      "scenar": 6419,
      "otta": 6420,
      "Ali": 6421,
      "Cagney": 6422,
      "1967": 6423,
      "1960s": 6424,
      "death": 6425,
      "debuted": 6426,
      "deals": 6427,
      "deMille": 6428,
      "endola": 6429,
      "endra_P": 6430,
      "endoza": 6431,
      "few": 6432,
      "feelings": 6433,
      "erno": 6434,
      "ernment": 6435,
      "quette": 6436,
      "ewell": 6437,
      "1980s": 6438,
      "ears": 6439,
      "earst": 6440,
      "ude_": 6441,
      "1928": 6442,
      "cki": 6443,
      "cker": 6444,
      "icks": 6445,
      "bec": 6446,
      "beyon": 6447,
      "resist": 6448,
      "respe": 6449,
      "_Ross": 6450,
      "phal": 6451,
      "_Stephen": 6452,
      "Clive": 6453,
      "Clara": 6454,
      "Clara_": 6455,
      "Claire": 6456,
      "upont": 6457,
      "awin": 6458,
      "asthan": 6459,
      "_Yordan": 6460,
      "Robert_M": 6461,
      "Robert_L": 6462,
      "Robert_E": 6463,
      "_Nair": 6464,
      "_Nemescu": 6465,
      "player": 6466,
      "lymp": 6467,
      "1978": 6468,
      "1970s": 6469,
      "Janet": 6470,
      "Jansen": 6471,
      "Jane_W": 6472,
      "ogg": 6473,
      "ognazz": 6474,
      "eyes": 6475,
      "conne": 6476,
      "contin": 6477,
      "concl": 6478,
      "consp": 6479,
      "convict": 6480,
      "Army": 6481,
      "Aranda": 6482,
      "1956": 6483,
      "1959": 6484,
      "Harve": 6485,
      "Harrison": 6486,
      "Jamie": 6487,
      "Jamie_": 6488,
      "Leung": 6489,
      "Lehmann": 6490,
      "Eddie_": 6491,
      "Edwin_": 6492,
      "Three": 6493,
      "Barry_": 6494,
      "Barros": 6495,
      "irstow": 6496,
      "Geoff": 6497,
      "_Ol": 6498,
      "ighton": 6499,
      "George_L": 6500,
      "George_B": 6501,
      "extens": 6502,
      "_and_": 6503,
      "ubb": 6504,
      "William_A": 6505,
      "William_Hen": 6506,
      "Shin": 6507,
      "Short": 6508,
      "Sharma": 6509,
      "Shapiro": 6510,
      "_Je": 6511,
      "Jameson": 6512,
      "Michael_O": 6513,
      "Michael_Cur": 6514,
      "storyline": 6515,
      "_Allen": 6516,
      "novelist": 6517,
      "Danvers": 6518,
      "Adel": 6519,
      "Adele": 6520,
      "Adapt": 6521,
      "Adreon": 6522,
      "trilog": 6523,
      "Paige": 6524,
      "obsess": 6525,
      "Jack_C": 6526,
      "ghton": 6527,
      "Donagh": 6528,
      "ver_Jones": 6529,
      "e_Lvovsky": 6530,
      "Richard_Sal": 6531,
      "Paul_Bart": 6532,
      "Norbert": 6533,
      "chen": 6534,
      "chester": 6535,
      "e_Howard": 6536,
      "Laura_": 6537,
      "Frank_G": 6538,
      "Amin_": 6539,
      "titled": 6540,
      "underground": 6541,
      "perling": 6542,
      "Brill": 6543,
      "Brass": 6544,
      "Brando": 6545,
      "Elsa_": 6546,
      "Elías": 6547,
      "Elfont": 6548,
      "Charlie": 6549,
      "Diamond": 6550,
      "uke_": 6551,
      "Dein": 6552,
      "ikand": 6553,
      "Warhol": 6554,
      "ailey": 6555,
      "due": 6556,
      "ruz": 6557,
      "_McDowell": 6558,
      "ments_": 6559,
      "arek": 6560,
      "arecki": 6561,
      "Christmas": 6562,
      "sets": 6563,
      "telenovela": 6564,
      "ashi": 6565,
      "Isa": 6566,
      "Isam": 6567,
      "adventures": 6568,
      "annadh": 6569,
      "McLaglen": 6570,
      "McFeely": 6571,
      "Bert": 6572,
      "Bergen": 6573,
      "Kingsley": 6574,
      "mous": 6575,
      "ancuso": 6576,
      "Clarke": 6577,
      "Clark_G": 6578,
      "porting": 6579,
      "Edwards": 6580,
      "Daniels": 6581,
      "Daniel_G": 6582,
      "Billy": 6583,
      "Goldhaber": 6584,
      "Mehta": 6585,
      "onymous": 6586,
      "Juli": 6587,
      "Julie_": 6588,
      "Fred_Mac": 6589,
      "_Zaki": 6590,
      "Claude": 6591,
      "working": 6592,
      "Guard": 6593,
      "e_Demong": 6594,
      "Louisiana": 6595,
      "ussi": 6596,
      "Enrico": 6597,
      "Moon": 6598,
      "Motion": 6599,
      "distribut": 6600,
      "espite": 6601,
      "Anne_": 6602,
      "Joseph_C": 6603,
      "Cooper": 6604,
      "Hale": 6605,
      "Manuel": 6606,
      "notable": 6607,
      "ullivan": 6608,
      "erty": 6609,
      "umentary": 6610,
      "Philip_Yordan": 6611,
      "Great": 6612,
      "fictitious": 6613,
      "characters": 6614,
      "Benoî": 6615,
      "history": 6616,
      "leads": 6617,
      "Victoria_": 6618,
      "followed": 6619,
      "Horne": 6620,
      "Horace_B": 6621,
      "Madsen": 6622,
      "Mayo": 6623,
      "Wilde": 6624,
      "Gius": 6625,
      "Gibb": 6626,
      "noted": 6627,
      "fictional": 6628,
      "Gabor": 6629,
      "Sheila": 6630,
      "Sale": 6631,
      "Salerno": 6632,
      "e_Gau": 6633,
      "y_Dale": 6634,
      "Mario_Mon": 6635,
      "Chris_Evans_": 6636,
      "Bhandarkar": 6637,
      "Bhushan": 6638,
      "Emily": 6639,
      "Miles": 6640,
      "Ramis": 6641,
      "format": 6642,
      "sequels": 6643,
      "Alexei": 6644,
      "Henaine": 6645,
      "Luci": 6646,
      "Luca_": 6647,
      "Lucien": 6648,
      "White": 6649,
      "_Amadori": 6650,
      "Marcus": 6651,
      "Harold_Ram": 6652,
      "Leonor": 6653,
      "Leonardo": 6654,
      "Marshall_": 6655,
      "Farewell": 6656,
      "Grable": 6657,
      "Gordon_Doug": 6658,
      "Wild_Bill_Elliott": 6659,
      "brother": 6660,
      "creature": 6661,
      "mie_Lvovsky": 6662,
      "month": 6663,
      "money": 6664,
      "ox_": 6665,
      "_Martin_": 6666,
      "ridge": 6667,
      "Markus": 6668,
      "Mark_Lewis_": 6669,
      "Stephen_Say": 6670,
      "Norman_Re": 6671,
      "Norman_Pan": 6672,
      "Herbert_Smith_": 6673,
      "Boyd": 6674,
      "Matalqa": 6675,
      "Terry": 6676,
      "Vera": 6677,
      "Veronic": 6678,
      "martial": 6679,
      "y_Mack": 6680,
      "_Mouret": 6681,
      "_Murray": 6682,
      "rights": 6683,
      "1950s": 6684,
      "Thomas_M": 6685,
      "Thomas_Hug": 6686,
      "Pierre_G": 6687,
      "Drago": 6688,
      "Elliott_Go": 6689,
      "Huit": 6690,
      "Matt_Stone": 6691,
      "biopic": 6692,
      "partic": 6693,
      "Martín": 6694,
      "aggero": 6695,
      "Stanley_": 6696,
      "Stanwy": 6697,
      "Francesc": 6698,
      "21st": 6699,
      "Holly_Dale": 6700,
      "Vinod": 6701,
      "laren": 6702,
      "large": 6703,
      "enzi": 6704,
      "enzel": 6705,
      "soundtrack": 6706,
      "Corman": 6707,
      "Laren": 6708,
      "Seas": 6709,
      "_Ullman": 6710,
      "uthbert": 6711,
      "vador": 6712,
      "Robin_": 6713,
      "Robitail": 6714,
      "_Conn": 6715,
      "collection": 6716,
      "George_Marshall_": 6717,
      "Merku": 6718,
      "People": 6719,
      "Perr": 6720,
      "Perry_": 6721,
      "Perlman": 6722,
      "famous": 6723,
      "guez": 6724,
      "subsequ": 6725,
      "subject": 6726,
      "intz": 6727,
      "intro": 6728,
      "a_Gray": 6729,
      "Christian_Martin_": 6730,
      "Curtin": 6731,
      "Curtiz": 6732,
      "Hayes": 6733,
      "Hayley": 6734,
      "Ormond": 6735,
      "Reeves": 6736,
      "Rajasthan": 6737,
      "himself": 6738,
      "minute": 6739,
      "a_Bod": 6740,
      "y_Savalas": 6741,
      "Adolphe": 6742,
      "Connor_": 6743,
      "Dickinson": 6744,
      "Lloyd_Bacon": 6745,
      "Natash": 6746,
      "Raoul": 6747,
      "ozlan": 6748,
      "prior": 6749,
      "Carolin": 6750,
      "aneke": 6751,
      "_Scha": 6752,
      "Johannes": 6753,
      "Rockies": 6754,
      "Chaney": 6755,
      "Johnny_": 6756,
      "performer": 6757,
      "performing": 6758,
      "Simona_Izzo": 6759,
      "Aaron_B": 6760,
      "Aaron_Wilson_": 6761,
      "Benny_Chan": 6762,
      "Betty": 6763,
      "Jayasury": 6764,
      "Jordan_Peele": 6765,
      "Kennedy": 6766,
      "Life": 6767,
      "Loos": 6768,
      "Prix": 6769,
      "such": 6770,
      "special": 6771,
      "involving": 6772,
      "involves": 6773,
      "involved": 6774,
      "helm": 6775,
      "Joshua": 6776,
      "Shirley": 6777,
      "Laurenc": 6778,
      "Laurent": 6779,
      "Luis_César": 6780,
      "Lewis_R": 6781,
      "Gabriel_Pascal": 6782,
      "Fernando_Tru": 6783,
      "theatrically": 6784,
      "Blak": 6785,
      "Basil_Mason": 6786,
      "Cornel": 6787,
      "Irish": 6788,
      "Kellogg": 6789,
      "Menahem": 6790,
      "Onteniente": 6791,
      "Sabertooth": 6792,
      "Talbot": 6793,
      "entirely": 6794,
      "members": 6795,
      "worldwide": 6796,
      "Patricia": 6797,
      "Ashley_": 6798,
      "Belgian": 6799,
      "Barton": 6800,
      "Bartel": 6801,
      "Deborah": 6802,
      "Kerrigan": 6803,
      "Mackie": 6804,
      "Police": 6805,
      "Sidney": 6806,
      "kills": 6807,
      "nolds": 6808,
      "typewriter": 6809,
      "various": 6810,
      "regard": 6811,
      "Royal": 6812,
      "_Harris": 6813,
      "Marco_Weber": 6814,
      "_Wallace": 6815,
      "_Paskaljević": 6816,
      "Angeles": 6817,
      "CinemaSco": 6818,
      "Devon": 6819,
      "Kalman": 6820,
      "Michel": 6821,
      "Rudolph": 6822,
      "Turkish": 6823,
      "holm": 6824,
      "Cassel": 6825,
      "ederer": 6826,
      "a_Chen": 6827,
      "_Coates": 6828,
      "_Henaine": 6829,
      "avernier": 6830,
      "utting": 6831,
      "Chuck_Jones": 6832,
      "Carl_S": 6833,
      "Carlson": 6834,
      "uguese": 6835,
      "rence_B": 6836,
      "awards": 6837,
      "development": 6838,
      "Giovanni_Pastrone": 6839,
      "Baby": 6840,
      "Brenda_": 6841,
      "Justin": 6842,
      "Justice": 6843,
      "Nadine_L": 6844,
      "Resnick": 6845,
      "Swift": 6846,
      "Yvonne": 6847,
      "critics": 6848,
      "capital": 6849,
      "numerous": 6850,
      "thorne": 6851,
      "ribed": 6852,
      "ioneers": 6853,
      "_Berke": 6854,
      "_Arm": 6855,
      "_Hayes": 6856,
      "_Donald": 6857,
      "uteuil": 6858,
      "_Paolo": 6859,
      "_Paige": 6860,
      "community": 6861,
      "_Rajan": 6862,
      "_Koontz": 6863,
      "scene": 6864,
      "ography": 6865,
      "travels": 6866,
      "issa_Fung": 6867,
      "Samuel_L": 6868,
      "Isabelle": 6869,
      "Juliett": 6870,
      "Juliette": 6871,
      "Claude_Brasseur": 6872,
      "Jacobson": 6873,
      "Jessica": 6874,
      "Shirley_and_D": 6875,
      "Corey": 6876,
      "Frost": 6877,
      "Gould": 6878,
      "Gavin": 6879,
      "Gavras": 6880,
      "Hungarian": 6881,
      "Kent_Os": 6882,
      "Supporting": 6883,
      "credit": 6884,
      "covery": 6885,
      "posed": 6886,
      "villain": 6887,
      "students": 6888,
      "_Haas": 6889,
      "Albright": 6890,
      "_Robertson": 6891,
      "Janis_Cole": 6892,
      "Vanessa": 6893,
      "Vanessa_": 6894,
      "Melvin_Frank": 6895,
      "Hugo_Haas": 6896,
      "cinematographer": 6897,
      "cinematography": 6898,
      "Gaspar_Henaine": 6899,
      "6900": 6900,
      "8400": 6901,
      "Crane_Wil": 6902,
      "Courten": 6903,
      "Ewald": 6904,
      "FIPRESCI": 6905,
      "Hammond": 6906,
      "Heather": 6907,
      "Kendrick": 6908,
      "Katherine_": 6909,
      "Minnelli": 6910,
      "Nour_Zaki": 6911,
      "Nia_Dinata": 6912,
      "Riccardo": 6913,
      "Rafaël": 6914,
      "Sergi": 6915,
      "borne_": 6916,
      "circus": 6917,
      "government": 6918,
      "horse": 6919,
      "military": 6920,
      "powerful": 6921,
      "uytten": 6922,
      "editor": 6923,
      "en_Johnson": 6924,
      "Rowland": 6925,
      "Rosenfeld": 6926,
      "_Griffith": 6927,
      "_De_Lauren": 6928,
      "_Walsh": 6929,
      "negative": 6930,
      "William_Fox_": 6931,
      "Shakti": 6932,
      "industry": 6933,
      "Israel": 6934,
      "Gertrude_": 6935,
      "Alfonso_Arau": 6936,
      "Giorgio": 6937,
      "_André": 6938,
      "depicts": 6939,
      "collaboration": 6940,
      "Stephan_Bren": 6941,
      "violent": 6942,
      "Enrique_San": 6943,
      "Massimo": 6944,
      "Peggy_": 6945,
      "swashbuckler": 6946,
      "replaced": 6947,
      "Malcolm_McDowell": 6948,
      "Aki_Kaurismäki": 6949,
      "Billie_Thomas": 6950,
      "Buster": 6951,
      "Courtne": 6952,
      "Durbin": 6953,
      "Documentary": 6954,
      "Derek": 6955,
      "Ezio": 6956,
      "Hoffman": 6957,
      "Koshe": 6958,
      "Kirsten_Johnson": 6959,
      "Mrinal": 6960,
      "Mellissa_Fung": 6961,
      "Pawan": 6962,
      "Portuguese": 6963,
      "Sudhir": 6964,
      "Sylvester": 6965,
      "Wei_Te": 6966,
      "covered": 6967,
      "described": 6968,
      "focuses": 6969,
      "fantasy": 6970,
      "keley": 6971,
      "melodrama": 6972,
      "uellet": 6973,
      "whether": 6974,
      "zegvary": 6975,
      "ène_Demong": 6976,
      "Caio_Sóh": 6977,
      "reviews": 6978,
      "professional": 6979,
      "_Collins": 6980,
      "_Denham": 6981,
      "Cheryl": 6982,
      "_Perez": 6983,
      "copyright": 6984,
      "John_English": 6985,
      "occurred": 6986,
      "consists": 6987,
      "Noémie_Lvovsky": 6988,
      "Bridget": 6989,
      "Madhur": 6990,
      "Colorado": 6991,
      "_Cassel": 6992,
      "Helen_Mirren": 6993,
      "Forbidden": 6994,
      "Jefferson_Craig": 6995,
      "Khushbu": 6996,
      "Akira_Chen": 6997,
      "Anthony_Newley": 6998,
      "Tanner_Barklow": 6999,
      "Goran_Paskaljević": 7000,
      "Jiří": 7001,
      "Bosnian": 7002,
      "Emmanuel_Mouret": 7003,
      "Cristian_Nemescu": 7004,
      "Oumarou_Ganda": 7005,
      "Rupert_Wyatt": 7006,
      "Vicente_": 7007,
      "Vittorio_Cecchi_Gori": 7008,
      "2nd": 7009,
      "Actress": 7010,
      "Balsam": 7011,
      "Bomsawin": 7012,
      "County": 7013,
      "Drake": 7014,
      "Ettore": 7015,
      "Fjellman": 7016,
      "Funès": 7017,
      "Grover_Jones": 7018,
      "Haden": 7019,
      "Hobart": 7020,
      "Jerome": 7021,
      "Kamal": 7022,
      "Mylène_Demong": 7023,
      "Metzger": 7024,
      "Nicole": 7025,
      "Orellana": 7026,
      "Paulo": 7027,
      "Prajesh": 7028,
      "Prakash": 7029,
      "Rasmus": 7030,
      "Stainken": 7031,
      "Telly_Savalas": 7032,
      "Toshi": 7033,
      "Vitagraph": 7034,
      "Vichy": 7035,
      "Wertmü": 7036,
      "Xuechang": 7037,
      "Youssef": 7038,
      "Zealand": 7039,
      "auntier": 7040,
      "brut": 7041,
      "dramatic": 7042,
      "gradu": 7043,
      "hsien": 7044,
      "highest": 7045,
      "revenge": 7046,
      "unebelle": 7047,
      "ucquoy": 7048,
      "illy_Raine": 7049,
      "tos_Discépolo": 7050,
      "Roopesh": 7051,
      "champion": 7052,
      "secret": 7053,
      "Antoine_Duléry": 7054,
      "John_Farrow": 7055,
      "John_Clements_": 7056,
      "ieślowski": 7057,
      "assistant": 7058,
      "schedul": 7059,
      "scenario": 7060,
      "endra_Prasad": 7061,
      "beyond": 7062,
      "respectively": 7063,
      "lympton": 7064,
      "ognazzi": 7065,
      "conspiracy": 7066,
      "extensive": 7067,
      "William_Henry_": 7068,
      "Michael_Curtiz": 7069,
      "Adapted": 7070,
      "trilogy": 7071,
      "Richard_Sale_": 7072,
      "Paul_Bartel": 7073,
      "Fred_MacMurray": 7074,
      "Benoît": 7075,
      "Harold_Ramis": 7076,
      "Gordon_Douglas_": 7077,
      "Stephen_Sayadian": 7078,
      "Norman_Reilly_Raine": 7079,
      "Norman_Panama": 7080,
      "Thomas_Hughes_": 7081,
      "Elliott_Gould": 7082,
      "Stanwyck": 7083,
      "Robitaille": 7084,
      "Merkulova": 7085,
      "Benny_Chan_": 7086,
      "Jayasurya": 7087,
      "Luis_César_Amadori": 7088,
      "Fernando_Trueba": 7089,
      "Marco_Weber_": 7090,
      "CinemaScope": 7091,
      "Nadine_Labaki": 7092,
      "Shirley_and_Dino": 7093,
      "Kent_Osborne_": 7094,
      "Crane_Wilbur": 7095,
      "_De_Laurentiis": 7096,
      "Stephan_Brenninkmeijer": 7097,
      "Enrique_Santos_Discépolo": 7098,
      "John_English_": 7099,
      "Mylène_Demongeot": 7100,
      "Wertmüller": 7101,
      "--": 7102,
      "220": 7103,
      "260": 7104,
      "31": 7105,
      "3D": 7106,
      "3660": 7107,
      "3840": 7108,
      "3540": 7109,
      "3180": 7110,
      "3420": 7111,
      "3rd": 7112,
      "44": 7113,
      "4440": 7114,
      "41st": 7115,
      "4140": 7116,
      "4500": 7117,
      "4320": 7118,
      "5th": 7119,
      "580": 7120,
      "67": 7121,
      "6600": 7122,
      "7380": 7123,
      "71st": 7124,
      "7140": 7125,
      "8640": 7126,
      "81st": 7127,
      "96": 7128,
      "Av": 7129,
      "Az": 7130,
      "Adi": 7131,
      "Aam": 7132,
      "Arun": 7133,
      "Aid": 7134,
      "Aqu": 7135,
      "Aish": 7136,
      "Action": 7137,
      "Ahead": 7138,
      "Aulin": 7139,
      "Actor": 7140,
      "Ahmed": 7141,
      "Autry": 7142,
      "Auteuil": 7143,
      "Bal": 7144,
      "Bol": 7145,
      "Bur": 7146,
      "Bet": 7147,
      "Bus": 7148,
      "Bay": 7149,
      "But": 7150,
      "Bul": 7151,
      "Big": 7152,
      "Bass": 7153,
      "Bour": 7154,
      "Bark": 7155,
      "Boll": 7156,
      "Bach": 7157,
      "Bef": 7158,
      "Blan": 7159,
      "Bull": 7160,
      "Banks": 7161,
      "Balkan": 7162,
      "Babu": 7163,
      "Bott": 7164,
      "Bets": 7165,
      "BBC": 7166,
      "Bár": 7167,
      "Bucquet": 7168,
      "Burnette": 7169,
      "Ce": 7170,
      "Cin": 7171,
      "Cel": 7172,
      "Cir": 7173,
      "Cri": 7174,
      "Cos": 7175,
      "Ceri": 7176,
      "Cot": 7177,
      "Cry": 7178,
      "Crom": 7179,
      "Cyn": 7180,
      "Coy": 7181,
      "Chen": 7182,
      "Civil": 7183,
      "Chow": 7184,
      "Corelli": 7185,
      "Cosm": 7186,
      "Cuori": 7187,
      "Cros": 7188,
      "Cukor": 7189,
      "Cobb": 7190,
      "Cuthbert": 7191,
      "Dj": 7192,
      "Do": 7193,
      "Div": 7194,
      "Dram": 7195,
      "Drama": 7196,
      "Dud": 7197,
      "Dog": 7198,
      "Dey": 7199,
      "Doll": 7200,
      "Duck": 7201,
      "De_F": 7202,
      "Dai": 7203,
      "Dines": 7204,
      "Dyan": 7205,
      "Dily": 7206,
      "Dale": 7207,
      "Desert": 7208,
      "Ducho": 7209,
      "Dwore": 7210,
      "Ek": 7211,
      "Ep": 7212,
      "Ex": 7213,
      "Ey": 7214,
      "Edi": 7215,
      "Ell": 7216,
      "Eche": 7217,
      "Ethan": 7218,
      "Euro": 7219,
      "Eisenberg": 7220,
      "Erik": 7221,
      "Eberhardt": 7222,
      "FC": 7223,
      "Fo": 7224,
      "Fy": 7225,
      "Fat": 7226,
      "Fur": 7227,
      "Fell": 7228,
      "Fure": 7229,
      "Foc": 7230,
      "Forg": 7231,
      "Fine": 7232,
      "Five": 7233,
      "Furn": 7234,
      "Free": 7235,
      "Finn": 7236,
      "Ferox": 7237,
      "Friday": 7238,
      "Gad": 7239,
      "Gul": 7240,
      "God": 7241,
      "Gow": 7242,
      "Gian": 7243,
      "Gres": 7244,
      "Gast": 7245,
      "Gary": 7246,
      "Gist": 7247,
      "Gild": 7248,
      "Grac": 7249,
      "Gok": 7250,
      "Gance": 7251,
      "Glen": 7252,
      "Goldb": 7253,
      "Gidden": 7254,
      "Gwen": 7255,
      "Gains": 7256,
      "Grace": 7257,
      "Glynn": 7258,
      "Ghost": 7259,
      "Gleeson": 7260,
      "Gielgud": 7261,
      "Gotta": 7262,
      "HS": 7263,
      "Has": 7264,
      "Hell": 7265,
      "Hod": 7266,
      "Hos": 7267,
      "Hem": 7268,
      "Hack": 7269,
      "Hiro": 7270,
      "Hone": 7271,
      "Hath": 7272,
      "Host": 7273,
      "Hunt": 7274,
      "Hatti": 7275,
      "Hoj": 7276,
      "Heidi": 7277,
      "Hurst": 7278,
      "Hudson": 7279,
      "Huston": 7280,
      "Hearst": 7281,
      "Hicks": 7282,
      "Ib": 7283,
      "Ig": 7284,
      "Il": 7285,
      "Iz": 7286,
      "Iman": 7287,
      "Iren": 7288,
      "Iron": 7289,
      "Ivo": 7290,
      "IFC": 7291,
      "Jad": 7292,
      "Jenn": 7293,
      "Jette": 7294,
      "Jazz": 7295,
      "Jiang": 7296,
      "Jillian": 7297,
      "KO": 7298,
      "Kil": 7299,
      "Kes": 7300,
      "Kid": 7301,
      "Kari": 7302,
      "Keg": 7303,
      "Kiss": 7304,
      "Kors": 7305,
      "Kander": 7306,
      "Kumar": 7307,
      "Kinney": 7308,
      "Kibbee": 7309,
      "Lt": 7310,
      "Ly": 7311,
      "Lor": 7312,
      "Lal": 7313,
      "Lio": 7314,
      "Loc": 7315,
      "Lop": 7316,
      "Late": 7317,
      "Log": 7318,
      "Loy": 7319,
      "Lanc": 7320,
      "Lach": 7321,
      "Lara": 7322,
      "Lino": 7323,
      "Lolo": 7324,
      "Liz": 7325,
      "Lyle": 7326,
      "Lyd": 7327,
      "Lani": 7328,
      "Lake": 7329,
      "Lower": 7330,
      "Link": 7331,
      "Lina_": 7332,
      "Lado": 7333,
      "Little": 7334,
      "Láz": 7335,
      "Levy": 7336,
      "Luke_": 7337,
      "MP": 7338,
      "Mis": 7339,
      "Ma_": 7340,
      "Mul": 7341,
      "Mim": 7342,
      "Mate": 7343,
      "Mild": 7344,
      "Main": 7345,
      "Math": 7346,
      "Mond": 7347,
      "Mach": 7348,
      "Mori": 7349,
      "Madis": 7350,
      "Madd": 7351,
      "Mandol": 7352,
      "Mesquiteers": 7353,
      "Milland": 7354,
      "Molina": 7355,
      "Mouzanar": 7356,
      "Nan": 7357,
      "Nam": 7358,
      "Nus": 7359,
      "Nia": 7360,
      "Name": 7361,
      "Neb": 7362,
      "Nere": 7363,
      "Nik": 7364,
      "Nair": 7365,
      "Nathan": 7366,
      "Nemo": 7367,
      "Nurses": 7368,
      "Nolte": 7369,
      "Nagy": 7370,
      "Nacho": 7371,
      "Nelson": 7372,
      "Nagu": 7373,
      "Ok": 7374,
      "Op": 7375,
      "Ou": 7376,
      "Old": 7377,
      "Otak": 7378,
      "Oreg": 7379,
      "Ocho": 7380,
      "Ozu": 7381,
      "PJ": 7382,
      "Pr": 7383,
      "Py": 7384,
      "Pá": 7385,
      "Pun": 7386,
      "Prit": 7387,
      "Pad": 7388,
      "Pir": 7389,
      "Pay": 7390,
      "Pho": 7391,
      "Pack": 7392,
      "Page": 7393,
      "Pina": 7394,
      "Panc": 7395,
      "Pank": 7396,
      "Pant": 7397,
      "Pace": 7398,
      "Prison": 7399,
      "Poli": 7400,
      "Pacif": 7401,
      "Price": 7402,
      "Pastrone": 7403,
      "Pickford": 7404,
      "Pioneers": 7405,
      "Rh": 7406,
      "Rhe": 7407,
      "Rid": 7408,
      "Rav": 7409,
      "Rag": 7410,
      "Rap": 7411,
      "Rug": 7412,
      "Raw": 7413,
      "Rust": 7414,
      "Rain": 7415,
      "Rath": 7416,
      "Rip": 7417,
      "Rial": 7418,
      "Rani": 7419,
      "Randy": 7420,
      "Rains": 7421,
      "Ringo": 7422,
      "RKO": 7423,
      "SA": 7424,
      "Si": 7425,
      "Sk": 7426,
      "Son": 7427,
      "Sic": 7428,
      "Sat": 7429,
      "Sun": 7430,
      "Sof": 7431,
      "Sov": 7432,
      "Sut": 7433,
      "Sev": 7434,
      "Sher": 7435,
      "Sem": 7436,
      "Sug": 7437,
      "Sai": 7438,
      "Sung": 7439,
      "Seg": 7440,
      "Swe": 7441,
      "Sara": 7442,
      "Soldier": 7443,
      "Sanders": 7444,
      "Show": 7445,
      "Sound": 7446,
      "Singing": 7447,
      "Sirk": 7448,
      "Saved": 7449,
      "Soon": 7450,
      "Sánchez": 7451,
      "Sitcom": 7452,
      "Sons": 7453,
      "Te": 7454,
      "Ti": 7455,
      "Ts": 7456,
      "Tu": 7457,
      "Tar": 7458,
      "Tit": 7459,
      "Tab": 7460,
      "Tran": 7461,
      "Tot": 7462,
      "Tang": 7463,
      "Tey": 7464,
      "Tob": 7465,
      "Take": 7466,
      "Tucker": 7467,
      "Tracy": 7468,
      "Tashlin": 7469,
      "Tolkin": 7470,
      "Ul": 7471,
      "Up": 7472,
      "Var": 7473,
      "Vel": 7474,
      "Vaj": 7475,
      "Villa": 7476,
      "Volkonogov": 7477,
      "VHS": 7478,
      "Wu": 7479,
      "Wen": 7480,
      "Wun": 7481,
      "Win_": 7482,
      "Way": 7483,
      "Wul": 7484,
      "Wie": 7485,
      "Wim": 7486,
      "Wang": 7487,
      "Wah": 7488,
      "Waj": 7489,
      "Wash": 7490,
      "Wally": 7491,
      "Winter": 7492,
      "Winger": 7493,
      "Wyatt": 7494,
      "Wayne": 7495,
      "Wesemael": 7496,
      "Xu": 7497,
      "Xander": 7498,
      "Xbox": 7499,
      "Yū": 7500,
      "Yas": 7501,
      "Yass": 7502,
      "Youn": 7503,
      "Yah": 7504,
      "Yuri": 7505,
      "Yosh": 7506,
      "Zan": 7507,
      "Zolt": 7508,
      "Zsa_": 7509,
      "Zhang": 7510,
      "_Care": 7511,
      "_Canton": 7512,
      "_Johansson": 7513,
      "_brothers": 7514,
      "_Capellani": 7515,
      "_deMille": 7516,
      "_Xuechang": 7517,
      "ae": 7518,
      "aí": 7519,
      "añ": 7520,
      "aar": 7521,
      "ais": 7522,
      "adi": 7523,
      "aqu": 7524,
      "aish": 7525,
      "aits": 7526,
      "axon": 7527,
      "airstow": 7528,
      "bre": 7529,
      "bol": 7530,
      "bus": 7531,
      "big": 7532,
      "best": 7533,
      "bry": 7534,
      "bour": 7535,
      "base": 7536,
      "bone": 7537,
      "boy": 7538,
      "bution": 7539,
      "bition": 7540,
      "baum": 7541,
      "beli": 7542,
      "birth": 7543,
      "barek": 7544,
      "bridge": 7545,
      "cs": 7546,
      "cz": 7547,
      "ced": 7548,
      "cand": 7549,
      "cad": 7550,
      "cell": 7551,
      "cio": 7552,
      "corr": 7553,
      "cru": 7554,
      "care": 7555,
      "capt": 7556,
      "craz": 7557,
      "civil": 7558,
      "cFar": 7559,
      "cloud": 7560,
      "cult": 7561,
      "candy": 7562,
      "cione": 7563,
      "clif": 7564,
      "cener": 7565,
      "cutting": 7566,
      "ded": 7567,
      "dri": 7568,
      "dag": 7569,
      "dul": 7570,
      "dog": 7571,
      "dise": 7572,
      "drop": 7573,
      "dellini": 7574,
      "draw": 7575,
      "drí": 7576,
      "despite": 7577,
      "ect": 7578,
      "eun": 7579,
      "ey_": 7580,
      "ead": 7581,
      "efe": 7582,
      "eck": 7583,
      "each": 7584,
      "fâ": 7585,
      "fill": 7586,
      "fman": 7587,
      "foun": 7588,
      "fly": 7589,
      "fight": 7590,
      "flas": 7591,
      "fail": 7592,
      "five": 7593,
      "frid": 7594,
      "fif": 7595,
      "fried": 7596,
      "finds": 7597,
      "fouz": 7598,
      "fira": 7599,
      "ging": 7600,
      "ged": 7601,
      "gus": 7602,
      "gman": 7603,
      "gier": 7604,
      "gger": 7605,
      "gner": 7606,
      "ga_P": 7607,
      "gely": 7608,
      "grid": 7609,
      "gna": 7610,
      "greed": 7611,
      "gado": 7612,
      "hv": 7613,
      "hon": 7614,
      "hit": 7615,
      "hom": 7616,
      "hum": 7617,
      "hong": 7618,
      "hari": 7619,
      "hury": 7620,
      "hini": 7621,
      "hunt": 7622,
      "hler": 7623,
      "hback": 7624,
      "htenberg": 7625,
      "iw": 7626,
      "iman": 7627,
      "iav": 7628,
      "iqu": 7629,
      "ie_M": 7630,
      "ie_W": 7631,
      "iams": 7632,
      "iño": 7633,
      "ju": 7634,
      "jö": 7635,
      "jou": 7636,
      "jour": 7637,
      "jung": 7638,
      "jail": 7639,
      "jans": 7640,
      "ja_Bh": 7641,
      "jitha": 7642,
      "ko": 7643,
      "khe": 7644,
      "kro": 7645,
      "kov": 7646,
      "kers": 7647,
      "kow": 7648,
      "kush": 7649,
      "klin": 7650,
      "kumar": 7651,
      "khar": 7652,
      "ko_T": 7653,
      "kshmi": 7654,
      "ló": 7655,
      "lö": 7656,
      "lon": 7657,
      "lit": 7658,
      "lic": 7659,
      "lam": 7660,
      "lau": 7661,
      "law": 7662,
      "long": 7663,
      "live": 7664,
      "lvar": 7665,
      "mis": 7666,
      "mag": 7667,
      "mul": 7668,
      "mation": 7669,
      "mess": 7670,
      "must": 7671,
      "mont": 7672,
      "minal": 7673,
      "mitt": 7674,
      "male": 7675,
      "mura": 7676,
      "mother": 7677,
      "mott": 7678,
      "mperoli": 7679,
      "m_Carr": 7680,
      "nan": 7681,
      "nat": 7682,
      "nur": 7683,
      "nine": 7684,
      "nberg": 7685,
      "national": 7686,
      "ndor": 7687,
      "north": 7688,
      "oq": 7689,
      "ois": 7690,
      "oof": 7691,
      "oire": 7692,
      "oisson": 7693,
      "pi": 7694,
      "ping": 7695,
      "ped": 7696,
      "pir": 7697,
      "pers": 7698,
      "psen": 7699,
      "pire": 7700,
      "person": 7701,
      "pbro": 7702,
      "pelli": 7703,
      "pson_": 7704,
      "prin": 7705,
      "psey": 7706,
      "parks": 7707,
      "qi": 7708,
      "rș": 7709,
      "rer": 7710,
      "rill": 7711,
      "rud": 7712,
      "rate": 7713,
      "rush": 7714,
      "rari": 7715,
      "ría": 7716,
      "sor": 7717,
      "sun": 7718,
      "sus": 7719,
      "sent": 7720,
      "slo": 7721,
      "sig": 7722,
      "shn": 7723,
      "soc": 7724,
      "sold": 7725,
      "sain": 7726,
      "sail": 7727,
      "slav": 7728,
      "singing": 7729,
      "sister": 7730,
      "tó": 7731,
      "tri": 7732,
      "tang": 7733,
      "tort": 7734,
      "tley": 7735,
      "tney": 7736,
      "traff": 7737,
      "tests": 7738,
      "uj": 7739,
      "uz": 7740,
      "ued": 7741,
      "ume": 7742,
      "u_W": 7743,
      "udrama": 7744,
      "uez": 7745,
      "ually": 7746,
      "uals": 7747,
      "vy_": 7748,
      "vac": 7749,
      "vid": 7750,
      "vation": 7751,
      "vok": 7752,
      "vei": 7753,
      "vats": 7754,
      "vraj": 7755,
      "varts": 7756,
      "vement": 7757,
      "wer": 7758,
      "wing": 7759,
      "went": 7760,
      "wary": 7761,
      "web": 7762,
      "word": 7763,
      "wait": 7764,
      "witz": 7765,
      "wrong": 7766,
      "witzer": 7767,
      "wolff": 7768,
      "xi": 7769,
      "xt": 7770,
      "yo": 7771,
      "yel": 7772,
      "ya_": 7773,
      "youn": 7774,
      "yke": 7775,
      "yler": 7776,
      "yora": 7777,
      "ykes": 7778,
      "zi": 7779,
      "zon": 7780,
      "zen": 7781,
      "zel": 7782,
      "zy_": 7783,
      "zina": 7784,
      "zals": 7785,
      "Álvar": 7786,
      "Óscar": 7787,
      "árez": 7788,
      "ão_de_": 7789,
      "än": 7790,
      "är": 7791,
      "ção": 7792,
      "élo": 7793,
      "érez": 7794,
      "érie": 7795,
      "énez": 7796,
      "írez": 7797,
      "ínez": 7798,
      "ños": 7799,
      "ñez": 7800,
      "ñoz": 7801,
      "ôni": 7802,
      "ønberg": 7803,
      "ús": 7804,
      "úñez": 7805,
      "ür": 7806,
      "üwe": 7807,
      "šek": 7808,
      "inf": 7809,
      "ination": 7810,
      "ince": 7811,
      "ine_H": 7812,
      "ina_S": 7813,
      "invas": 7814,
      "inelli": 7815,
      "inling": 7816,
      "inbur": 7817,
      "inhardt": 7818,
      "invest": 7819,
      "inoche": 7820,
      "Caram": 7821,
      "Cats": 7822,
      "Castile": 7823,
      "Caucas": 7824,
      "Cazals": 7825,
      "arr": 7826,
      "arin": 7827,
      "aran": 7828,
      "ared": 7829,
      "arus": 7830,
      "ar_V": 7831,
      "ardie": 7832,
      "arwell": 7833,
      "armed": 7834,
      "arraj": 7835,
      "arbi": 7836,
      "ar_Rajan": 7837,
      "erl": 7838,
      "erup": 7839,
      "erey": 7840,
      "erite": 7841,
      "erwan": 7842,
      "erg_": 7843,
      "erature": 7844,
      "erji": 7845,
      "erwitz": 7846,
      "ano": 7847,
      "anin": 7848,
      "anor": 7849,
      "aney": 7850,
      "ants": 7851,
      "anwhile": 7852,
      "another": 7853,
      "ano_Van": 7854,
      "anatra": 7855,
      "il_": 7856,
      "iler": 7857,
      "ilom": 7858,
      "iley": 7859,
      "ilde_": 7860,
      "ility": 7861,
      "illeg": 7862,
      "ilton_": 7863,
      "ilverman": 7864,
      "ile_Gau": 7865,
      "ilôni": 7866,
      "string": 7867,
      "sten": 7868,
      "stal": 7869,
      "stic": 7870,
      "stom": 7871,
      "stay": 7872,
      "stra": 7873,
      "stem": 7874,
      "station": 7875,
      "state": 7876,
      "stier": 7877,
      "status": 7878,
      "stume": 7879,
      "ingham": 7880,
      "inggang": 7881,
      "reb": 7882,
      "rev": 7883,
      "rees": 7884,
      "reta": 7885,
      "reti": 7886,
      "rese": 7887,
      "reton": 7888,
      "remade": 7889,
      "reason": 7890,
      "reys": 7891,
      "renew": 7892,
      "reograp": 7893,
      "return": 7894,
      "repris": 7895,
      "film_and_": 7896,
      "onas": 7897,
      "onent": 7898,
      "onia": 7899,
      "onah": 7900,
      "orer": 7901,
      "orst": 7902,
      "oris": 7903,
      "oria": 7904,
      "orable": 7905,
      "orande": 7906,
      "het": 7907,
      "heon": 7908,
      "hesh": 7909,
      "heorg": 7910,
      "heung": 7911,
      "rington": 7912,
      "ringste": 7913,
      "itan": 7914,
      "itten": 7915,
      "ita_P": 7916,
      "itesh": 7917,
      "itled": 7918,
      "iti_": 7919,
      "itão_de_": 7920,
      "eda": 7921,
      "eds": 7922,
      "edict": 7923,
      "edger": 7924,
      "ene": 7925,
      "ened": 7926,
      "enth": 7927,
      "ento": 7928,
      "enco": 7929,
      "en_and": 7930,
      "enney": 7931,
      "ention": 7932,
      "enmann": 7933,
      "enback": 7934,
      "enouc": 7935,
      "enforc": 7936,
      "enfeld": 7937,
      "enada": 7938,
      "andr": 7939,
      "andis": 7940,
      "anda_": 7941,
      "andler": 7942,
      "isi": 7943,
      "iser": 7944,
      "ised": 7945,
      "isen": 7946,
      "ises": 7947,
      "isol": 7948,
      "island": 7949,
      "isatti": 7950,
      "is_Goldb": 7951,
      "asing": 7952,
      "ascon": 7953,
      "asky": 7954,
      "aspard": 7955,
      "e_Un": 7956,
      "e_Van": 7957,
      "e_Davis": 7958,
      "e_Carol": 7959,
      "e_Andrews": 7960,
      "e_Collins": 7961,
      "e_Adjani": 7962,
      "e_Thompson": 7963,
      "alin": 7964,
      "aley": 7965,
      "alcon": 7966,
      "alist": 7967,
      "alley": 7968,
      "alond": 7969,
      "alberg": 7970,
      "ica": 7971,
      "ices": 7972,
      "icot": 7973,
      "ichen": 7974,
      "ically": 7975,
      "theme": 7976,
      "dig": 7977,
      "dix": 7978,
      "died": 7979,
      "dia_": 7980,
      "distin": 7981,
      "rov": 7982,
      "road": 7983,
      "roian": 7984,
      "rogi": 7985,
      "roeder": 7986,
      "royer": 7987,
      "at_": 7988,
      "aton": 7989,
      "atton": 7990,
      "attr": 7991,
      "atini": 7992,
      "atsu": 7993,
      "190": 7994,
      "1909": 7995,
      "1903": 7996,
      "esco": 7997,
      "eslie": 7998,
      "esnick": 7999,
      "tay": 8000,
      "tack": 8001,
      "taire": 8002,
      "tails": 8003,
      "tafford": 8004,
      "una": 8005,
      "unro": 8006,
      "unes": 8007,
      "unte": 8008,
      "unknown": 8009,
      "uncle": 8010,
      "unofficial": 8011,
      "amh": 8012,
      "amo": 8013,
      "aman": 8014,
      "amor": 8015,
      "amel": 8016,
      "amag": 8017,
      "among": 8018,
      "amare": 8019,
      "ela": 8020,
      "elj": 8021,
      "elas": 8022,
      "ele_": 8023,
      "el_R": 8024,
      "elso": 8025,
      "elton": 8026,
      "eline_": 8027,
      "elito": 8028,
      "elmans": 8029,
      "elnu": 8030,
      "elitta": 8031,
      "ritt": 8032,
      "ritory": 8033,
      "in_Ha": 8034,
      "in_Farnum": 8035,
      "Canone": 8036,
      "Canuel": 8037,
      "Canelas": 8038,
      "a_Ch": 8039,
      "a_Car": 8040,
      "a_Kendrick": 8041,
      "a_Merkulova": 8042,
      "tially": 8043,
      "tiful": 8044,
      "tiple": 8045,
      "tišek": 8046,
      "2096": 8047,
      "lee": 8048,
      "lem": 8049,
      "lear": 8050,
      "lect": 8051,
      "leton": 8052,
      "leep": 8053,
      "leger": 8054,
      "leans": 8055,
      "levy": 8056,
      "level": 8057,
      "uch": 8058,
      "ucher": 8059,
      "uchi": 8060,
      "uccione": 8061,
      "uchet": 8062,
      "Cama": 8063,
      "Came": 8064,
      "Camino": 8065,
      "Camacho": 8066,
      "ofcener": 8067,
      "y_Le": 8068,
      "y_William": 8069,
      "y_Michael": 8070,
      "y_De": 8071,
      "y_Allen": 8072,
      "y_VanCamp": 8073,
      "y_Lem": 8074,
      "y_Daniels": 8075,
      "y_Jacobson": 8076,
      "_Mil": 8077,
      "_Mass": 8078,
      "_Mend": 8079,
      "_Mark": 8080,
      "_Maj": 8081,
      "_Mund": 8082,
      "_Maz": 8083,
      "_Muk": 8084,
      "_Mune": 8085,
      "_Mouzanar": 8086,
      "_Mancuso": 8087,
      "_Menzel": 8088,
      "mez": 8089,
      "memo": 8090,
      "means": 8091,
      "meida": 8092,
      "mestic": 8093,
      "prof": 8094,
      "profess": 8095,
      "protag": 8096,
      "promot": 8097,
      "olé": 8098,
      "olan": 8099,
      "olot": 8100,
      "olfe": 8101,
      "ol_N": 8102,
      "oliano": 8103,
      "olitan": 8104,
      "Calle": 8105,
      "The_B": 8106,
      "ades": 8107,
      "ada_": 8108,
      "adow": 8109,
      "adice": 8110,
      "adys": 8111,
      "adwick": 8112,
      "adaro": 8113,
      "adarsh": 8114,
      "urj": 8115,
      "urer": 8116,
      "urce": 8117,
      "urup": 8118,
      "_Sr": 8119,
      "_Sel": 8120,
      "_Sol": 8121,
      "_Sab": 8122,
      "_Sigh": 8123,
      "_Scol": 8124,
      "_Scar": 8125,
      "_Small": 8126,
      "_Sperling": 8127,
      "_Sikand": 8128,
      "_Sullivan": 8129,
      "_Szegvary": 8130,
      "_Soisson": 8131,
      "_Sykes": 8132,
      "ace_": 8133,
      "acDonald": 8134,
      "acchi": 8135,
      "account": 8136,
      "acqui": 8137,
      "acinelli": 8138,
      "eter": 8139,
      "etes": 8140,
      "eters": 8141,
      "etter": 8142,
      "ombell": 8143,
      "used": 8144,
      "usand": 8145,
      "usion": 8146,
      "us_and": 8147,
      "uschen": 8148,
      "ira_": 8149,
      "iration": 8150,
      "irala": 8151,
      "runetti": 8152,
      "running": 8153,
      "tha": 8154,
      "thosh": 8155,
      "thwait": 8156,
      "mery": 8157,
      "merson": 8158,
      "rier": 8159,
      "riet": 8160,
      "riage": 8161,
      "rie_H": 8162,
      "ions": 8163,
      "aya": 8164,
      "aye": 8165,
      "ays": 8166,
      "ayer": 8167,
      "ayan": 8168,
      "ayev": 8169,
      "ayne_": 8170,
      "_Bre": 8171,
      "_Bel": 8172,
      "_Bol": 8173,
      "_Bran": 8174,
      "_Bern": 8175,
      "_Boy": 8176,
      "_Burton": 8177,
      "_Betti": 8178,
      "_Bhand": 8179,
      "_Bucquet": 8180,
      "_Bardem": 8181,
      "_Bucquoy": 8182,
      "tour": 8183,
      "entitled": 8184,
      "fort": 8185,
      "forward": 8186,
      "Joann": 8187,
      "Joston": 8188,
      "Joe_Bro": 8189,
      "Joaqu": 8190,
      "nio": 8191,
      "niston": 8192,
      "Italy": 8193,
      "Roder": 8194,
      "Rots": 8195,
      "Roberta": 8196,
      "Rochester": 8197,
      "berry": 8198,
      "_Cop": 8199,
      "_Coz": 8200,
      "_Celi": 8201,
      "_Clif": 8202,
      "_Cummings": 8203,
      "_Cheung": 8204,
      "_Fre": 8205,
      "_For": 8206,
      "_Fro": 8207,
      "_Fred": 8208,
      "_Fenn": 8209,
      "_Foy": 8210,
      "_Fair": 8211,
      "_Fech": 8212,
      "_Fras": 8213,
      "_Freed": 8214,
      "_Fesser": 8215,
      "_Fumia": 8216,
      "hood": 8217,
      "house": 8218,
      "idates": 8219,
      "_Ale": 8220,
      "_Ari": 8221,
      "_Ash": 8222,
      "_Ald": 8223,
      "_Ahmed": 8224,
      "_Aniston": 8225,
      "log": 8226,
      "loom": 8227,
      "loss": 8228,
      "look": 8229,
      "lovi": 8230,
      "_Ho": 8231,
      "_Hor": 8232,
      "_Hag": 8233,
      "_Hall": 8234,
      "_Hans": 8235,
      "_Hannah": 8236,
      "_Hudson": 8237,
      "_Hsiao": 8238,
      "_Haneke": 8239,
      "_Hunebelle": 8240,
      "Mars": 8241,
      "Marie": 8242,
      "Mariet": 8243,
      "Marines": 8244,
      "Marie_": 8245,
      "Margu": 8246,
      "ards": 8247,
      "arden": 8248,
      "ardhan": 8249,
      "ardner": 8250,
      "ardson_": 8251,
      "_God": 8252,
      "_Gance": 8253,
      "_Greco": 8254,
      "_Gilmore": 8255,
      "_Gallagher": 8256,
      "_Gozlan": 8257,
      "_Guccione": 8258,
      "_Golan": 8259,
      "_Gardner": 8260,
      "avis": 8261,
      "aves": 8262,
      "avetes": 8263,
      "_Dan": 8264,
      "_Dev": 8265,
      "_Dum": 8266,
      "_Dick": 8267,
      "_Dres": 8268,
      "_De_M": 8269,
      "_Dai": 8270,
      "_Dillon": 8271,
      "_Dutt": 8272,
      "_Deva": 8273,
      "_Dupont": 8274,
      "_Dyke": 8275,
      "chu": 8276,
      "chio": 8277,
      "chap": 8278,
      "chant": 8279,
      "age_": 8280,
      "ages": 8281,
      "agent": 8282,
      "agni": 8283,
      "agreed": 8284,
      "agidson": 8285,
      "agannadh": 8286,
      "aggner": 8287,
      "agiw": 8288,
      "ovits": 8289,
      "oveva": 8290,
      "util": 8291,
      "utler_": 8292,
      "uttenberg": 8293,
      "ulp": 8294,
      "ulder": 8295,
      "ulari": 8296,
      "ulescu": 8297,
      "_West": 8298,
      "_Web": 8299,
      "_Wood": 8300,
      "_Wurt": 8301,
      "_Wesemael": 8302,
      "ello": 8303,
      "ellés": 8304,
      "Stiller": 8305,
      "Stef": 8306,
      "Stuh": 8307,
      "Stoner": 8308,
      "Stalin": 8309,
      "acts": 8310,
      "acting": 8311,
      "acted": 8312,
      "activ": 8313,
      "actual": 8314,
      "actments": 8315,
      "American_actor": 8316,
      "ighan": 8317,
      "igley": 8318,
      "igious": 8319,
      "iggin": 8320,
      "igenmann": 8321,
      "igelj": 8322,
      "io_Bardem": 8323,
      "ershon": 8324,
      "aba": 8325,
      "abnom": 8326,
      "tensen": 8327,
      "Child": 8328,
      "Chie_": 8329,
      "Chief": 8330,
      "Chih": 8331,
      "Chitra": 8332,
      "Chomicki": 8333,
      "Chadwick": 8334,
      "_Py": 8335,
      "_Pat": 8336,
      "_Pell": 8337,
      "_Pine": 8338,
      "_Pallo": 8339,
      "_Parks": 8340,
      "_Pabst": 8341,
      "_Plympton": 8342,
      "_Peters": 8343,
      "_Payne_": 8344,
      "raise": 8345,
      "raising": 8346,
      "sei": 8347,
      "sev": 8348,
      "estate": 8349,
      "common": 8350,
      "commerc": 8351,
      "cock": 8352,
      "comet": 8353,
      "costume": 8354,
      "releases": 8355,
      "neur": 8356,
      "neau": 8357,
      "neaux": 8358,
      "nehy": 8359,
      "neuro": 8360,
      "oda": 8361,
      "odal": 8362,
      "odes": 8363,
      "odec": 8364,
      "odato": 8365,
      "ally_": 8366,
      "allone": 8367,
      "allenberg": 8368,
      "hna": 8369,
      "hnall": 8370,
      "ichi": 8371,
      "ichardson_": 8372,
      "_La_": 8373,
      "_Long": 8374,
      "_Lord": 8375,
      "_Leo": 8376,
      "_Lynch": 8377,
      "_Lombardo": 8378,
      "_Lenzi": 8379,
      "_Lederer": 8380,
      "_Lasky": 8381,
      "_Leslie": 8382,
      "eve": 8383,
      "evan": 8384,
      "event": 8385,
      "Anil": 8386,
      "Andi": 8387,
      "Anur": 8388,
      "Angi": 8389,
      "Angie": 8390,
      "Antó": 8391,
      "osa": 8392,
      "osse": 8393,
      "emb": 8394,
      "emar": 8395,
      "emmer": 8396,
      "ithara": 8397,
      "John_R": 8398,
      "John_Mer": 8399,
      "Johnnie": 8400,
      "John_Har": 8401,
      "John_Carradine": 8402,
      "s_Jr": 8403,
      "s_Ko": 8404,
      "term": 8405,
      "uma": 8406,
      "ump": 8407,
      "umon": 8408,
      "umat": 8409,
      "umate": 8410,
      "umik": 8411,
      "aks": 8412,
      "aku": 8413,
      "akie": 8414,
      "akris": 8415,
      "iek": 8416,
      "imon": 8417,
      "imain": 8418,
      "owo": 8419,
      "owho": 8420,
      "owers": 8421,
      "owei": 8422,
      "ianc": 8423,
      "ianya": 8424,
      "sons": 8425,
      "ouder": 8426,
      "oustier": 8427,
      "aper": 8428,
      "aplin": 8429,
      "apocalyp": 8430,
      "apstick": 8431,
      "apata": 8432,
      "apoor": 8433,
      "_Ry": 8434,
      "_Red": 8435,
      "_Raw": 8436,
      "_Rey": 8437,
      "_Rath": 8438,
      "_Rai": 8439,
      "_Reed": 8440,
      "_Roland": 8441,
      "_Rolf": 8442,
      "_Riedell": 8443,
      "_Resnick": 8444,
      "_Radice": 8445,
      "_Kar": 8446,
      "_Khan": 8447,
      "_Kenn": 8448,
      "_Knight": 8449,
      "_Kuri": 8450,
      "_Kumar": 8451,
      "_Kane": 8452,
      "_Kyne": 8453,
      "_Kulik": 8454,
      "_Kaplan": 8455,
      "_Klaren": 8456,
      "_Kieślowski": 8457,
      "_Kenney": 8458,
      "rice_D": 8459,
      "_Ter": 8460,
      "_Tam": 8461,
      "_Tur": 8462,
      "_Tana": 8463,
      "_Trank": 8464,
      "_Tracy": 8465,
      "_Tashlin": 8466,
      "_Tavernier": 8467,
      "rance": 8468,
      "shire": 8469,
      "shih": 8470,
      "1932": 8471,
      "1930s": 8472,
      "eries": 8473,
      "auh": 8474,
      "auto": 8475,
      "aufman": 8476,
      "autiful": 8477,
      "aumery": 8478,
      "actory": 8479,
      "Carr": 8480,
      "Carver": 8481,
      "Carbonnaux": 8482,
      "Cartney": 8483,
      "assy": 8484,
      "assoc": 8485,
      "assini": 8486,
      "000": 8487,
      "pling": 8488,
      "plund": 8489,
      "plann": 8490,
      "plorer": 8491,
      "schen": 8492,
      "screw": 8493,
      "ocaba": 8494,
      "ote": 8495,
      "oting": 8496,
      "ored": 8497,
      "oren": 8498,
      "oreau": 8499,
      "Alas": 8500,
      "Alic": 8501,
      "Al_B": 8502,
      "Alto": 8503,
      "Alain": 8504,
      "Alberta": 8505,
      "Almeida": 8506,
      "artya": 8507,
      "cek": 8508,
      "ceased": 8509,
      "1964": 8510,
      "opi": 8511,
      "opal": 8512,
      "opera": 8513,
      "opsa": 8514,
      "opened": 8515,
      "opolitan": 8516,
      "edy_film": 8517,
      "dez": 8518,
      "deal": 8519,
      "dead": 8520,
      "defeat": 8521,
      "decl": 8522,
      "deway": 8523,
      "details": 8524,
      "ended": 8525,
      "endra": 8526,
      "endall": 8527,
      "endless": 8528,
      "endrix": 8529,
      "endleton": 8530,
      "Captains": 8531,
      "feea": 8532,
      "sok": 8533,
      "source": 8534,
      "quand": 8535,
      "quick": 8536,
      "quota": 8537,
      "quanet": 8538,
      "iah": 8539,
      "iaz": 8540,
      "within": 8541,
      "tons": 8542,
      "tonen": 8543,
      "ton_S": 8544,
      "ryn": 8545,
      "ugee": 8546,
      "earl": 8547,
      "earned": 8548,
      "_Eg": 8549,
      "_Est": 8550,
      "uded": 8551,
      "udary": 8552,
      "Ind": 8553,
      "Inter": 8554,
      "Insp": 8555,
      "Inesc": 8556,
      "Innes": 8557,
      "Ingram": 8558,
      "Ingrass": 8559,
      "Instit": 8560,
      "Ingrid": 8561,
      "1922": 8562,
      "1923": 8563,
      "1925": 8564,
      "cka": 8565,
      "icker": 8566,
      "icking": 8567,
      "icked": 8568,
      "ickinson": 8569,
      "Camilla": 8570,
      "begin": 8571,
      "beaux": 8572,
      "becoming": 8573,
      "Filmed": 8574,
      "rence": 8575,
      "_Rob": 8576,
      "_Rose": 8577,
      "_Rots": 8578,
      "_Rodrí": 8579,
      "phone": 8580,
      "phron": 8581,
      "_Stan": 8582,
      "Cler": 8583,
      "Cline": 8584,
      "Clif": 8585,
      "upp": 8586,
      "upt": 8587,
      "uperey": 8588,
      "awa": 8589,
      "awley": 8590,
      "ourneur": 8591,
      "astina": 8592,
      "ounsou": 8593,
      "Robert_S": 8594,
      "Robert_C": 8595,
      "Robert_A": 8596,
      "Robert_D": 8597,
      "Robert_N": 8598,
      "Robert_Al": 8599,
      "Robert_Ker": 8600,
      "Robert_Bl": 8601,
      "Robert_Young_": 8602,
      "Robert_Paige": 8603,
      "Franz": 8604,
      "Franç": 8605,
      "František": 8606,
      "Fran_Dres": 8607,
      "_Nov": 8608,
      "_Need": 8609,
      "_Nichol": 8610,
      "_Nolte": 8611,
      "_Nuytten": 8612,
      "_Naish": 8613,
      "illies": 8614,
      "lyle": 8615,
      "tty": 8616,
      "1970": 8617,
      "1971": 8618,
      "Jane_D": 8619,
      "Jancs": 8620,
      "Jan_Bucquoy": 8621,
      "Janardhan": 8622,
      "epic": 8623,
      "epardon": 8624,
      "eponymous": 8625,
      "oges": 8626,
      "ogram": 8627,
      "ogang": 8628,
      "oghan": 8629,
      "asehart": 8630,
      "coni": 8631,
      "confer": 8632,
      "contra": 8633,
      "confl": 8634,
      "olland": 8635,
      "Aru": 8636,
      "Arno": 8637,
      "Arlen": 8638,
      "Arci": 8639,
      "1958": 8640,
      "essina": 8641,
      "ffman": 8642,
      "ffries": 8643,
      "Hara": 8644,
      "Harmon": 8645,
      "Harbour": 8646,
      "Harriet": 8647,
      "isting": 8648,
      "istilli": 8649,
      "Leï": 8650,
      "Lee_L": 8651,
      "Leigh": 8652,
      "Lekshmi": 8653,
      "40s": 8654,
      "4080": 8655,
      "Edmond": 8656,
      "Edwin": 8657,
      "Edinbur": 8658,
      "ierker": 8659,
      "iroff": 8660,
      "de_Havilland": 8661,
      "ustig": 8662,
      "ward_Grant": 8663,
      "Through": 8664,
      "Thorpe": 8665,
      "Union": 8666,
      "Bara": 8667,
      "Barraz": 8668,
      "Barnett": 8669,
      "rise": 8670,
      "_Or": 8671,
      "_Ouellet": 8672,
      "_Opbro": 8673,
      "ightly": 8674,
      "ielsen": 8675,
      "tegna": 8676,
      "Georg_C": 8677,
      "George_F": 8678,
      "George_H": 8679,
      "Georg_Wil": 8680,
      "execution": 8681,
      "explic": 8682,
      "ubin": 8683,
      "ubly": 8684,
      "uckley": 8685,
      "Williamson": 8686,
      "William_K": 8687,
      "William_Berke": 8688,
      "ichael_Mc": 8689,
      "Shint": 8690,
      "Shawn": 8691,
      "Shvarts": 8692,
      "Shabnom": 8693,
      "_Ja": 8694,
      "_Just": 8695,
      "_Jarecki": 8696,
      "_Jagannadh": 8697,
      "gero": 8698,
      "e_Mendoza": 8699,
      "e_Magidson": 8700,
      "e_Moreau": 8701,
      "aldías": 8702,
      "James_H": 8703,
      "James_G": 8704,
      "James_W": 8705,
      "James_I": 8706,
      "James_Ed": 8707,
      "Michael_K": 8708,
      "Michael_Haneke": 8709,
      "Michael_Parks": 8710,
      "keep": 8711,
      "pean": 8712,
      "pejans": 8713,
      "e_For": 8714,
      "e_Flack": 8715,
      "e_Felitta": 8716,
      "1911": 8717,
      "illermo": 8718,
      "aines": 8719,
      "ainbau": 8720,
      "Dana": 8721,
      "Dana_": 8722,
      "Daniell": 8723,
      "David_H": 8724,
      "David_D": 8725,
      "David_P": 8726,
      "David_Carradine": 8727,
      "Ador": 8728,
      "Adal": 8729,
      "Advent": 8730,
      "Adair": 8731,
      "Adnan": 8732,
      "rachtenberg": 8733,
      "athy": 8734,
      "athers": 8735,
      "athkumar": 8736,
      "Paolo": 8737,
      "Richfield": 8738,
      "ips": 8739,
      "object": 8740,
      "Jack_F": 8741,
      "Jack_L": 8742,
      "Jackie": 8743,
      "Jack_K": 8744,
      "Jack_J": 8745,
      "Jack_Low": 8746,
      "ecart": 8747,
      "Don_": 8748,
      "Donna": 8749,
      "Donough": 8750,
      "Donna_": 8751,
      "Donnell": 8752,
      "ahine": 8753,
      "ahiro": 8754,
      "ahara": 8755,
      "ah_Ab": 8756,
      "ahfouz": 8757,
      "others": 8758,
      "outside": 8759,
      "ia_Ormond": 8760,
      "ia_de_Havilland": 8761,
      "inda": 8762,
      "e_Smith": 8763,
      "e_Sek": 8764,
      "yner": 8765,
      "ushing": 8766,
      "ushima": 8767,
      "Richards": 8768,
      "Richard_Wall": 8769,
      "Richard_John": 8770,
      "Richard_Harris": 8771,
      "ajiy": 8772,
      "o_Ven": 8773,
      "oyle_": 8774,
      "Cadets": 8775,
      "Paula": 8776,
      "Paul_L": 8777,
      "Paul_Tana": 8778,
      "ched": 8779,
      "chestra": 8780,
      "offé": 8781,
      "offin": 8782,
      "inslee": 8783,
      "e_Hol": 8784,
      "e_Hunt": 8785,
      "e_Hewitt": 8786,
      "Laz": 8787,
      "Laur": 8788,
      "Laine": 8789,
      "onda": 8790,
      "enced": 8791,
      "encer_": 8792,
      "Frank_B": 8793,
      "Franklin_": 8794,
      "Frank_Sin": 8795,
      "Frank_Tashlin": 8796,
      "Ames": 8797,
      "Amy_": 8798,
      "Amaz": 8799,
      "Amaria": 8800,
      "Amarty": 8801,
      "Amadori": 8802,
      "Amrani": 8803,
      "Amendola": 8804,
      "Amanda_": 8805,
      "Amartya": 8806,
      "Brand": 8807,
      "Bront": 8808,
      "Bruss": 8809,
      "Elian": 8810,
      "Elwood": 8811,
      "Elfelt": 8812,
      "Charli": 8813,
      "Charbon": 8814,
      "Vance": 8815,
      "Van_Wesemael": 8816,
      "azimova": 8817,
      "uka": 8818,
      "ukhari": 8819,
      "ukahara": 8820,
      "worth": 8821,
      "Alla_N": 8822,
      "ikh": 8823,
      "iley_B": 8824,
      "Andor": 8825,
      "Anders": 8826,
      "Andy_S": 8827,
      "Jon_El": 8828,
      "Warfield": 8829,
      "aily": 8830,
      "ega": 8831,
      "lini": 8832,
      "linked": 8833,
      "elect": 8834,
      "election": 8835,
      "duo": 8836,
      "tsen": 8837,
      "_Dein": 8838,
      "_Dean_": 8839,
      "ression": 8840,
      "Britton": 8841,
      "Pete": 8842,
      "Peters": 8843,
      "Peterson": 8844,
      "ok_": 8845,
      "okol": 8846,
      "okvei": 8847,
      "ontgom": 8848,
      "_McDonald": 8849,
      "_McHugh": 8850,
      "_McFeely": 8851,
      "_McLaren": 8852,
      "_McGow": 8853,
      "Conor": 8854,
      "Noël": 8855,
      "Sam_B": 8856,
      "Sam_W": 8857,
      "afyan": 8858,
      "mentor": 8859,
      "one_Power": 8860,
      "iddell": 8861,
      "iddled": 8862,
      "Christy_": 8863,
      "1890": 8864,
      "1840s": 8865,
      "Walker_": 8866,
      "sett": 8867,
      "e_Ber": 8868,
      "e_Binoche": 8869,
      "iottesco": 8870,
      "Abril": 8871,
      "Abdel": 8872,
      "Abbasi": 8873,
      "Abdul": 8874,
      "Apache": 8875,
      "Appassionati": 8876,
      "Paraí": 8877,
      "Paterson": 8878,
      "Pat_Mor": 8879,
      "McCann": 8880,
      "McCarey": 8881,
      "senior": 8882,
      "super": 8883,
      "Berke": 8884,
      "Beranger": 8885,
      "Berenson": 8886,
      "Kingston": 8887,
      "_Imp": 8888,
      "_Imperoli": 8889,
      "eather": 8890,
      "ke_Stevens": 8891,
      "ancell": 8892,
      "ancio": 8893,
      "urnett": 8894,
      "achmann": 8895,
      "eif": 8896,
      "ly_Howard": 8897,
      "orized": 8898,
      "2022": 8899,
      "Edward_F": 8900,
      "Edwards_": 8901,
      "Edward_J": 8902,
      "Edward_Cho": 8903,
      "Edward_Bern": 8904,
      "Daniele_D": 8905,
      "Daniel_Gold": 8906,
      "Daniel_Goldb": 8907,
      "Billy_B": 8908,
      "lair": 8909,
      "a_Priestley": 8910,
      "ette_H": 8911,
      "low_": 8912,
      "Philo": 8913,
      "Phil_Rosen": 8914,
      "Charles_B": 8915,
      "Charles_T": 8916,
      "Charles_J": 8917,
      "Charles_Star": 8918,
      "Julie": 8919,
      "Julio_P": 8920,
      "Julia_Ormond": 8921,
      "anksh": 8922,
      "ankford": 8923,
      "ankaran": 8924,
      "y_Russell": 8925,
      "Peter_El": 8926,
      "Peter_Hy": 8927,
      "Peter_Li": 8928,
      "Freda": 8929,
      "Freddie": 8930,
      "Freddie_": 8931,
      "Fred_Ko": 8932,
      "_Var": 8933,
      "_Ven": 8934,
      "_Val": 8935,
      "_Vidal": 8936,
      "_Vallée": 8937,
      "_Vince": 8938,
      "_Zhong": 8939,
      "_Marion": 8940,
      "_Maria_": 8941,
      "_Wilson": 8942,
      "_Wilde": 8943,
      "_Wilhoite": 8944,
      "Claudia_": 8945,
      "workers": 8946,
      "Guen": 8947,
      "Guill": 8948,
      "docudrama": 8949,
      "efer": 8950,
      "effe": 8951,
      "lane": 8952,
      "lante": 8953,
      "suff": 8954,
      "antley": 8955,
      "ante_Mendoza": 8956,
      "e_Dickinson": 8957,
      "owned": 8958,
      "Barbosa": 8959,
      "ordon_Lee": 8960,
      "Herb": 8961,
      "kanen": 8962,
      "shooting": 8963,
      "usswolff": 8964,
      "_Abbasi": 8965,
      "_Abol_N": 8966,
      "Steve_G": 8967,
      "Steve_Sek": 8968,
      "Accord": 8969,
      "Acquanet": 8970,
      "Help": 8971,
      "Helmut": 8972,
      "Luke": 8973,
      "Lu_Xuechang": 8974,
      "Moh": 8975,
      "Mohan": 8976,
      "Moham": 8977,
      "Mouret": 8978,
      "Moe_Howard": 8979,
      "Muriel": 8980,
      "Murphy": 8981,
      "eaus": 8982,
      "izes": 8983,
      "izoph": 8984,
      "iziottesco": 8985,
      "ronic": 8986,
      "Carell": 8987,
      "itty": 8988,
      "ittra": 8989,
      "ittingham": 8990,
      "distribution": 8991,
      "_Warner": 8992,
      "razee": 8993,
      "Annett": 8994,
      "Annette": 8995,
      "Anna_Bod": 8996,
      "Anna_Kendrick": 8997,
      "ummers": 8998,
      "Joseph_M": 8999,
      "Joseph_F": 9000,
      "Joseph_Greco": 9001,
      "Joseph_Kane": 9002,
      "Cox": 9003,
      "Cohen": 9004,
      "Coates": 9005,
      "Gerard": 9006,
      "Hal_B": 9007,
      "Hal_Need": 9008,
      "Mani": 9009,
      "Manor": 9010,
      "Manoj": 9011,
      "Mantegna": 9012,
      "Victoire": 9013,
      "ullu": 9014,
      "icolaescu": 9015,
      "addition": 9016,
      "addario": 9017,
      "sequences": 9018,
      "complet": 9019,
      "component": 9020,
      "Alferd": 9021,
      "Philippe": 9022,
      "Aleks": 9023,
      "Aleandro": 9024,
      "Grey": 9025,
      "Greco": 9026,
      "_Carter": 9027,
      "_Carbonnaux": 9028,
      "_Carrol": 9029,
      "centres": 9030,
      "spies": 9031,
      "spoof": 9032,
      "spaper": 9033,
      "rosser": 9034,
      "Benjam": 9035,
      "Benedict": 9036,
      "Victoria": 9037,
      "Horman": 9038,
      "Horace": 9039,
      "Mayan": 9040,
      "Mayberry": 9041,
      "Wilfrid": 9042,
      "eredith": 9043,
      "rieson": 9044,
      "Thunderbolt": 9045,
      "documents": 9046,
      "Colin": 9047,
      "Colman": 9048,
      "Coldeway": 9049,
      "Gifford": 9050,
      "ekassy": 9051,
      "interest": 9052,
      "headed": 9053,
      "headle": 9054,
      "ley_Atwell": 9055,
      "ley_Metzger": 9056,
      "oldiers": 9057,
      "7740": 9058,
      "Gable": 9059,
      "Mahesh": 9060,
      "Olive": 9061,
      "Olcott": 9062,
      "Pier_Paolo": 9063,
      "Sheil": 9064,
      "Shepper": 9065,
      "Salim": 9066,
[...]
